<pad>	0
</s>	0
<unk>	0
<n>	0
.	-3.13102
,	-3.30969
▁the	-3.32926
▁	-3.71623
▁and	-3.75032
▁to	-3.80842
▁of	-3.94781
▁a	-4.05468
▁in	-4.34049
s	-4.45028
▁is	-4.64095
▁for	-4.7389
▁you	-4.90055
▁that	-4.95777
-	-4.99449
▁with	-5.03088
’	-5.10105
▁on	-5.13316
▁I	-5.22363
▁it	-5.29347
▁are	-5.30115
▁your	-5.40074
▁be	-5.41549
▁as	-5.50367
'	-5.53199
▁or	-5.60697
▁have	-5.63871
▁at	-5.66837
▁from	-5.6902
▁this	-5.70748
▁can	-5.7153
▁will	-5.73689
▁The	-5.76017
▁was	-5.78751
▁by	-5.78889
▁an	-5.89963
▁(	-5.92478
t	-5.9877
▁we	-6.00842
▁not	-6.0107
!	-6.07337
▁has	-6.11299
▁all	-6.14532
▁our	-6.17218
:	-6.20005
?	-6.23388
▁their	-6.24964
▁more	-6.25092
▁but	-6.29101
▁one	-6.33446
▁they	-6.33838
)	-6.36903
The	-6.37037
▁about	-6.4162
▁my	-6.44183
▁which	-6.47844
▁also	-6.49216
▁up	-6.49914
▁out	-6.50465
▁time	-6.52348
▁so	-6.5371
▁It	-6.70411
▁his	-6.70511
▁who	-6.70717
▁do	-6.71736
▁like	-6.72362
▁when	-6.72984
▁been	-6.74004
▁if	-6.74552
▁other	-6.75989
▁new	-6.76544
▁he	-6.78657
▁get	-6.79416
▁what	-6.8021
▁some	-6.82618
▁This	-6.8386
▁them	-6.85052
▁We	-6.85292
▁“	-6.85883
▁there	-6.86501
I	-6.86845
▁just	-6.87408
▁any	-6.87969
▁into	-6.88731
/	-6.89656
▁would	-6.89743
▁make	-6.90695
"	-6.91265
▁were	-6.93423
▁had	-6.952
▁than	-6.96122
▁"	-6.96989
▁how	-6.9816
▁people	-6.99251
▁work	-7.00426
▁A	-7.00599
▁its	-7.00843
▁over	-7.0094
▁most	-7.03356
;	-7.03862
▁use	-7.04738
m	-7.05093
▁only	-7.05168
▁well	-7.05587
▁first	-7.0562
▁–	-7.06578
▁me	-7.06889
▁us	-7.07068
▁her	-7.073
re	-7.07799
▁need	-7.09485
▁may	-7.10194
▁these	-7.1319
▁no	-7.14355
▁very	-7.16959
▁In	-7.17523
▁many	-7.18424
▁through	-7.19286
▁help	-7.19931
▁You	-7.20239
”	-7.21644
▁two	-7.2245
▁best	-7.22634
▁way	-7.22882
▁years	-7.24914
▁year	-7.27703
▁-	-7.30298
▁good	-7.31172
▁know	-7.31911
▁see	-7.32786
▁then	-7.3363
▁home	-7.34798
▁now	-7.35197
▁If	-7.3525
▁where	-7.35953
▁day	-7.36844
▁said	-7.37215
▁after	-7.37818
▁want	-7.3818
▁should	-7.3886
▁back	-7.38967
▁take	-7.39626
▁much	-7.39985
).	-7.40409
A	-7.41147
d	-7.41309
▁such	-7.41557
▁even	-7.41575
▁great	-7.41943
▁could	-7.42117
▁information	-7.43261
▁find	-7.43943
▁&	-7.44002
▁business	-7.48323
ve	-7.48801
▁because	-7.48849
▁used	-7.49306
▁here	-7.49542
▁she	-7.49977
▁made	-7.50059
ll	-7.51574
▁right	-7.5325
▁before	-7.53937
▁being	-7.54659
▁life	-7.56337
▁don	-7.56735
ing	-7.56886
▁those	-7.57633
▁go	-7.58128
▁each	-7.58356
▁while	-7.61901
▁world	-7.62323
▁around	-7.62523
▁2	-7.62648
▁high	-7.63393
▁own	-7.6358
S	-7.64895
We	-7.66431
▁He	-7.66736
▁look	-7.69171
This	-7.70048
▁really	-7.70211
▁last	-7.70618
▁every	-7.70903
▁different	-7.71036
▁service	-7.71061
▁available	-7.71591
▁free	-7.71817
▁place	-7.72369
▁3	-7.72431
▁part	-7.72481
▁love	-7.72521
▁off	-7.72636
▁long	-7.73327
▁company	-7.73575
▁both	-7.73721
▁using	-7.74284
a	-7.74422
▁1	-7.74973
▁experience	-7.75037
th	-7.75773
▁down	-7.76059
▁still	-7.77793
▁same	-7.77795
▁think	-7.78719
),	-7.79358
▁going	-7.79976
▁too	-7.80332
In	-7.8058
ed	-7.81029
▁between	-7.82109
▁services	-7.82218
▁provide	-7.82253
▁team	-7.82349
▁For	-7.82462
▁They	-7.82938
▁set	-7.83448
▁few	-7.8378
▁And	-7.84081
e	-7.8417
▁system	-7.85232
▁family	-7.85591
▁always	-7.85708
▁including	-7.86719
▁come	-7.89956
▁little	-7.9062
▁during	-7.91062
▁sure	-7.91151
▁data	-7.91403
▁water	-7.91708
▁support	-7.91736
▁online	-7.92018
▁three	-7.92101
▁better	-7.92311
▁things	-7.92635
▁him	-7.94312
▁But	-7.94437
▁number	-7.94853
▁area	-7.94951
▁am	-7.95068
▁without	-7.95441
▁quality	-7.95659
▁top	-7.9624
▁able	-7.96526
▁New	-7.96654
▁next	-7.97104
▁There	-7.97113
▁design	-7.97467
▁must	-7.98464
▁important	-7.98763
▁full	-7.98988
▁does	-7.99854
If	-8.00059
▁small	-8.00431
▁give	-8.00541
It	-8.00966
com	-8.01389
▁something	-8.01558
▁under	-8.02047
▁process	-8.0249
▁lot	-8.03149
▁did	-8.03786
▁offer	-8.04457
▁end	-8.04596
▁5	-8.05063
▁another	-8.05456
▁within	-8.06256
▁found	-8.06521
▁working	-8.06625
▁keep	-8.07095
▁10	-8.07121
▁site	-8.07218
▁products	-8.07425
▁today	-8.07476
▁since	-8.07874
▁might	-8.08228
▁looking	-8.08654
▁4	-8.09274
▁order	-8.09666
in	-8.09752
▁website	-8.09886
▁start	-8.09907
▁game	-8.11005
▁days	-8.11058
▁local	-8.12162
▁students	-8.12938
▁feel	-8.13025
▁never	-8.14119
▁making	-8.14231
▁week	-8.14912
▁needs	-8.15195
▁As	-8.15568
▁school	-8.15901
▁easy	-8.16963
...	-8.16982
▁‘	-8.17445
▁show	-8.18316
▁children	-8.18324
▁project	-8.18877
▁care	-8.18993
▁market	-8.19642
▁money	-8.19981
▁Our	-8.19983
▁book	-8.2032
▁change	-8.21865
▁So	-8.22167
▁To	-8.22346
▁put	-8.22678
y	-8.23026
▁say	-8.23082
You	-8.23595
▁room	-8.23637
▁got	-8.23654
er	-8.23855
▁create	-8.23857
▁course	-8.24587
▁large	-8.24633
▁together	-8.2472
▁food	-8.25825
▁health	-8.25958
▁community	-8.26924
▁open	-8.27089
▁away	-8.27224
▁until	-8.27577
▁program	-8.27613
▁often	-8.28421
▁possible	-8.28751
▁When	-8.29007
▁again	-8.29044
▁All	-8.29057
▁case	-8.29059
▁page	-8.2981
▁car	-8.30152
▁real	-8.30361
▁With	-8.30586
▁name	-8.30673
▁call	-8.31072
▁include	-8.31357
ly	-8.31384
▁per	-8.31871
▁why	-8.32269
▁product	-8.32349
▁state	-8.32553
▁post	-8.32573
▁based	-8.3271
▁She	-8.33561
▁second	-8.34071
n	-8.34814
▁event	-8.34967
▁group	-8.35537
i	-8.35661
▁having	-8.35803
▁old	-8.36635
▁become	-8.36721
▁big	-8.36791
▁play	-8.36823
▁What	-8.36851
▁against	-8.37301
▁person	-8.37731
▁along	-8.37791
▁list	-8.37871
“	-8.37961
▁price	-8.38028
D	-8.38133
▁contact	-8.38241
▁comes	-8.3826
▁research	-8.38262
▁thing	-8.38349
▁U	-8.38869
▁level	-8.39075
▁side	-8.39146
▁less	-8.39204
▁done	-8.39228
▁house	-8.39562
▁public	-8.39939
▁across	-8.40133
,”	-8.40188
▁power	-8.40482
▁That	-8.40605
▁development	-8.4067
▁below	-8.40853
▁times	-8.41074
▁access	-8.41117
or	-8.41163
▁point	-8.41221
▁—	-8.41432
▁makes	-8.41592
▁job	-8.41621
▁means	-8.41715
."	-8.41785
to	-8.42231
▁live	-8.42379
▁range	-8.42453
▁several	-8.42647
▁space	-8.42794
▁University	-8.43302
▁industry	-8.43564
▁offers	-8.43649
▁enough	-8.43778
▁already	-8.44101
▁These	-8.44156
▁try	-8.44174
▁getting	-8.44402
▁personal	-8.44643
▁plan	-8.44869
▁perfect	-8.45114
▁body	-8.45423
▁hard	-8.45528
▁form	-8.46046
▁read	-8.46148
▁city	-8.47034
▁left	-8.47218
▁cost	-8.4729
▁S	-8.47312
▁ever	-8.47393
2	-8.47537
▁light	-8.47789
▁companies	-8.48027
▁social	-8.48239
and	-8.48347
▁customers	-8.4853
▁please	-8.48645
C	-8.49028
▁6	-8.49176
▁country	-8.49444
▁i	-8.49592
▁future	-8.49775
▁music	-8.49825
▁add	-8.4986
▁others	-8.49985
▁share	-8.50074
▁let	-8.50167
▁hours	-8.50197
▁line	-8.50219
▁four	-8.51022
▁minutes	-8.51144
▁learn	-8.51348
the	-8.51517
▁video	-8.51886
▁fun	-8.52272
▁started	-8.52371
▁special	-8.52414
▁members	-8.52578
▁run	-8.52673
r	-8.52967
▁technology	-8.53227
▁check	-8.53281
o	-8.53286
▁past	-8.53693
▁features	-8.53944
▁doing	-8.5397
▁visit	-8.54074
▁once	-8.54243
—	-8.54751
▁hand	-8.55369
▁control	-8.5537
▁building	-8.55501
▁value	-8.55531
▁night	-8.5571
▁No	-8.55898
What	-8.5604
▁called	-8.56671
▁training	-8.57025
▁professional	-8.57033
▁far	-8.57244
▁God	-8.57361
▁complete	-8.58174
▁questions	-8.59028
▁problem	-8.59112
▁won	-8.59373
▁though	-8.59415
▁season	-8.59438
▁everything	-8.59495
▁low	-8.59589
For	-8.59763
▁current	-8.59794
▁least	-8.59885
▁story	-8.59913
▁beautiful	-8.5999
▁simple	-8.60142
▁example	-8.60191
▁bit	-8.60222
▁actually	-8.60239
▁months	-8.60717
▁doesn	-8.60737
▁provides	-8.60947
▁property	-8.61206
▁friends	-8.6134
▁didn	-8.61675
▁B	-8.61793
▁C	-8.62161
▁enjoy	-8.62347
▁20	-8.62433
▁My	-8.62537
▁content	-8.63117
▁results	-8.63733
▁management	-8.63788
▁million	-8.6383
As	-8.63851
▁known	-8.64045
▁above	-8.64082
▁8	-8.64341
▁non	-8.6435
▁yet	-8.64929
▁However	-8.65039
▁single	-8.6509
▁short	-8.65393
▁One	-8.6549
▁ensure	-8.65561
▁early	-8.65592
▁fact	-8.65723
▁issues	-8.65794
▁type	-8.65874
▁unique	-8.6589
There	-8.66232
▁living	-8.66354
▁various	-8.66539
▁7	-8.66643
▁month	-8.66703
▁pay	-8.66791
▁M	-8.66827
▁size	-8.66861
▁office	-8.66883
▁understand	-8.67003
▁buy	-8.67145
▁choose	-8.67372
▁areas	-8.67437
▁given	-8.68147
▁took	-8.68166
▁media	-8.68426
▁performance	-8.68513
▁designed	-8.68537
▁customer	-8.69048
▁due	-8.69164
▁idea	-8.69195
▁came	-8.69244
▁email	-8.69255
▁energy	-8.69296
▁following	-8.69971
▁taking	-8.70037
▁someone	-8.70042
▁staff	-8.70448
▁says	-8.70455
▁bring	-8.70477
▁On	-8.70606
▁women	-8.70735
▁mind	-8.70881
▁At	-8.71052
▁American	-8.71089
▁required	-8.71205
▁government	-8.71428
▁clients	-8.71775
▁works	-8.72477
▁kind	-8.72495
on	-8.72571
▁key	-8.72676
▁addition	-8.72999
▁whole	-8.73404
▁12	-8.73561
▁thought	-8.73722
▁child	-8.73931
▁five	-8.74191
▁style	-8.74243
▁meet	-8.74493
▁options	-8.74494
▁City	-8.74549
▁Your	-8.74769
▁main	-8.74874
▁ideas	-8.75016
When	-8.75173
▁30	-8.7551
▁later	-8.75572
▁series	-8.75661
▁software	-8.75661
▁yourself	-8.75826
▁whether	-8.75875
▁front	-8.76054
▁seen	-8.76136
▁phone	-8.76141
▁close	-8.76715
▁went	-8.77319
▁everyone	-8.77371
▁history	-8.77659
▁needed	-8.77776
▁art	-8.77843
▁study	-8.77953
▁head	-8.78136
▁air	-8.78226
▁white	-8.78298
▁move	-8.78372
▁believe	-8.78397
▁major	-8.78462
▁E	-8.78757
▁view	-8.78882
▁further	-8.7893
▁events	-8.79001
▁details	-8.7903
▁especially	-8.79155
▁simply	-8.79271
▁United	-8.79287
▁either	-8.79501
▁quite	-8.79545
▁includes	-8.79614
▁natural	-8.79711
▁result	-8.7995
▁web	-8.80008
▁amount	-8.80115
▁D	-8.80196
▁hope	-8.80833
▁insurance	-8.81155
▁added	-8.81346
▁de	-8.81394
▁receive	-8.81452
▁throughout	-8.81777
▁After	-8.81965
▁How	-8.82075
▁application	-8.82093
▁writing	-8.82141
▁search	-8.82332
3	-8.82356
▁games	-8.82403
▁account	-8.82414
▁man	-8.82456
▁opportunity	-8.82781
▁report	-8.82912
▁created	-8.82967
▁etc	-8.82995
▁ready	-8.83007
▁provided	-8.83117
▁build	-8.83559
To	-8.84074
▁15	-8.84106
▁specific	-8.84269
1	-8.84605
(	-8.84741
▁anything	-8.84786
▁problems	-8.84828
▁almost	-8.84894
,"	-8.84898
▁located	-8.84979
▁systems	-8.85131
▁financial	-8.85477
▁face	-8.8554
▁security	-8.85559
▁half	-8.85856
▁card	-8.86052
▁stay	-8.8608
▁ago	-8.86223
▁class	-8.86324
▁lead	-8.86507
x	-8.86649
▁young	-8.86781
&	-8.8696
▁School	-8.87123
▁learning	-8.87223
▁oil	-8.87281
▁allow	-8.87335
▁field	-8.87503
▁National	-8.87505
▁skills	-8.87771
▁currently	-8.87779
up	-8.87945
▁skin	-8.88324
▁likely	-8.88633
▁ways	-8.88646
es	-8.88677
▁heart	-8.88796
▁happy	-8.88877
▁law	-8.88934
▁third	-8.88948
▁focus	-8.8904
▁color	-8.89097
▁age	-8.89097
▁users	-8.8955
▁T	-8.8965
▁forward	-8.89683
▁soon	-8.89792
▁taken	-8.89922
▁popular	-8.89973
▁clear	-8.89988
▁US	-8.90038
B	-8.90154
▁brand	-8.90257
▁among	-8.90394
▁treatment	-8.90438
▁coming	-8.9053
▁South	-8.90577
▁store	-8.90794
▁turn	-8.90889
▁date	-8.90914
▁issue	-8.91053
▁education	-8.91087
▁present	-8.91242
▁paper	-8.91337
▁continue	-8.91343
▁however	-8.91352
▁save	-8.91464
▁test	-8.91721
▁image	-8.91731
▁strong	-8.91891
▁latest	-8.92057
▁private	-8.92084
▁variety	-8.92123
▁black	-8.92298
▁kids	-8.92323
So	-8.92333
▁self	-8.9236
▁choice	-8.92402
▁increase	-8.92415
▁State	-8.92444
▁activities	-8.92678
▁deal	-8.92775
▁individual	-8.92798
▁interest	-8.92963
▁blog	-8.92981
Our	-8.92986
▁tell	-8.93126
▁version	-8.93131
▁knowledge	-8.93247
▁table	-8.93265
▁wide	-8.93266
▁near	-8.93476
▁party	-8.93546
▁common	-8.93598
▁easily	-8.9381
▁usually	-8.93912
▁outside	-8.93947
▁marketing	-8.93984
▁sales	-8.94124
▁built	-8.9418
▁percent	-8.94246
g	-8.9438
▁takes	-8.94453
▁R	-8.9446
▁matter	-8.94496
▁Do	-8.94501
▁items	-8.94549
▁projects	-8.94559
▁address	-8.946
▁practice	-8.94603
▁trying	-8.94642
▁pretty	-8.9466
▁environment	-8.94728
▁running	-8.94947
▁file	-8.95066
▁changes	-8.95259
▁additional	-8.9532
▁ask	-8.95377
▁member	-8.95562
▁original	-8.95601
▁follow	-8.95795
▁leave	-8.95844
▁York	-8.95941
▁e	-8.95975
▁model	-8.96051
▁user	-8.96581
▁step	-8.96584
▁probably	-8.96722
▁inside	-8.96758
▁potential	-8.96929
▁download	-8.9693
▁role	-8.9701
▁wanted	-8.97085
▁reason	-8.97149
▁allows	-8.9719
▁rate	-8.97201
▁St	-8.97404
▁growth	-8.97592
▁isn	-8.97617
▁providing	-8.97618
▁amazing	-8.97706
▁certain	-8.97733
▁via	-8.9774
▁rather	-8.97907
▁P	-8.98176
▁equipment	-8.98271
▁human	-8.98297
▁points	-8.98341
▁cover	-8.98374
▁held	-8.98628
▁risk	-8.98661
▁option	-8.98998
▁production	-8.99035
▁quickly	-8.99166
▁p	-8.99172
▁North	-8.99251
▁behind	-8.99465
▁World	-8.99558
▁longer	-8.99703
▁film	-8.99927
M	-9.00024
▁told	-9.00105
▁weeks	-9.00143
▁Center	-9.00244
▁click	-9.0033
▁higher	-9.00386
▁Please	-9.00545
▁location	-9.00597
▁travel	-9.00617
▁question	-9.00699
▁J	-9.00791
▁period	-9.00803
▁recent	-9.00951
▁credit	-9.01291
▁extra	-9.01419
▁purchase	-9.01462
▁May	-9.01487
4	-9.01507
▁received	-9.01609
▁total	-9.01863
▁materials	-9.01911
▁action	-9.01959
▁drive	-9.02042
▁re	-9.02093
▁true	-9.02205
▁summer	-9.02504
▁stop	-9.02545
▁success	-9.02623
▁sale	-9.02686
▁UK	-9.02741
▁improve	-9.0292
▁favorite	-9.02931
▁code	-9.02949
T	-9.03117
▁2018	-9.03227
▁couple	-9.03472
▁review	-9.03502
▁County	-9.03661
▁return	-9.03785
based	-9.03792
How	-9.03995
▁recently	-9.04011
▁shows	-9.04085
_	-9.04093
▁medical	-9.04204
▁international	-9.04281
▁/	-9.04329
▁mobile	-9.0433
▁solutions	-9.04386
▁modern	-9.04532
▁worked	-9.04702
▁nice	-9.04798
▁collection	-9.04829
▁9	-9.04871
▁solution	-9.04875
▁network	-9.04929
▁included	-9.05039
▁entire	-9.05085
But	-9.05197
▁general	-9.05231
▁effective	-9.05438
▁computer	-9.0548
▁G	-9.05557
▁April	-9.05759
▁reading	-9.05795
▁programs	-9.05804
▁safe	-9.05837
▁leading	-9.05857
▁lives	-9.05943
▁anyone	-9.06021
▁cannot	-9.06044
▁kitchen	-9.0606
P	-9.06298
▁particular	-9.06345
▁standard	-9.06365
▁parts	-9.06619
▁costs	-9.06921
▁article	-9.06979
▁position	-9.07105
▁final	-9.07207
▁tools	-9.0729
▁looks	-9.07431
▁impact	-9.07601
▁student	-9.07742
▁Park	-9.07899
▁Dr	-9.079
▁An	-9.07981
▁similar	-9.08087
▁related	-9.08136
▁ability	-9.08143
▁highly	-9.08176
▁meeting	-9.0825
▁words	-9.08323
▁news	-9.08547
▁fast	-9.08659
▁according	-9.08804
▁necessary	-9.08925
▁excellent	-9.09169
▁benefits	-9.09268
And	-9.09351
▁else	-9.0941
▁app	-9.09455
▁cut	-9.09546
▁goal	-9.09697
▁material	-9.09874
▁talk	-9.10078
▁clean	-9.10099
▁rest	-9.10207
E	-9.10223
▁His	-9.10311
▁cause	-9.10318
▁safety	-9.10333
▁hair	-9.10368
▁career	-9.10439
▁difficult	-9.10509
▁chance	-9.10761
▁States	-9.10942
▁approach	-9.10956
▁nothing	-9.10963
▁digital	-9.10978
▁plans	-9.10995
▁road	-9.11147
year	-9.11239
▁types	-9.11311
▁mean	-9.11531
▁fit	-9.11607
▁win	-9.11802
▁men	-9.12172
▁bad	-9.12244
▁x	-9.12277
▁Some	-9.12467
K	-9.12508
▁six	-9.12552
▁floor	-9.12567
▁books	-9.12609
▁Now	-9.12676
▁link	-9.12694
▁'	-9.1275
▁tax	-9.1287
▁daily	-9.12882
▁consider	-9.12935
▁piece	-9.1313
▁morning	-9.13367
▁resources	-9.13382
▁While	-9.13446
▁board	-9.13491
▁Home	-9.13819
▁patients	-9.13966
▁seems	-9.1418
▁K	-9.14231
▁conditions	-9.14274
▁feature	-9.14331
▁asked	-9.14408
▁weight	-9.14465
▁March	-9.14505
k	-9.14742
▁send	-9.15086
▁L	-9.15171
▁images	-9.15339
▁sound	-9.15364
▁decision	-9.15372
▁Google	-9.15481
▁door	-9.15555
▁By	-9.15566
▁100	-9.15633
▁planning	-9.15668
▁Here	-9.15735
G	-9.1584
▁involved	-9.15933
▁Day	-9.15948
▁policy	-9.15986
▁prices	-9.1605
▁fully	-9.1606
▁develop	-9.16102
▁upon	-9.16151
▁directly	-9.16157
▁11	-9.16226
▁lower	-9.16287
▁wall	-9.1636
▁box	-9.16801
▁average	-9.16814
▁From	-9.16986
▁multiple	-9.16992
▁players	-9.17061
▁photos	-9.17083
▁picture	-9.17134
▁sense	-9.17337
▁John	-9.17595
▁require	-9.17624
▁America	-9.17778
▁House	-9.17833
▁instead	-9.17851
▁Not	-9.17989
▁attention	-9.18025
▁F	-9.1803
▁worth	-9.18249
▁record	-9.18269
▁write	-9.18463
▁late	-9.18502
▁requirements	-9.18505
He	-9.18521
▁businesses	-9.18594
▁levels	-9.18612
]	-9.18835
▁N	-9.18869
▁walk	-9.19142
▁track	-9.19242
▁center	-9.19284
▁countries	-9.19331
▁gives	-9.19342
▁helps	-9.19375
▁red	-9.19444
*	-9.19455
▁itself	-9.19645
▁reach	-9.19694
▁storage	-9.19733
▁traditional	-9.19772
al	-9.19909
With	-9.19944
▁source	-9.19947
▁trip	-9.1996
▁themselves	-9.20077
▁parents	-9.20077
▁town	-9.201
man	-9.20142
▁global	-9.2043
▁playing	-9.20469
▁huge	-9.20634
▁creating	-9.20812
▁[	-9.20885
▁completely	-9.20893
▁device	-9.21014
ers	-9.2116
▁terms	-9.21206
▁release	-9.21229
▁giving	-9.21312
▁pre	-9.2141
▁organization	-9.21538
▁loss	-9.21545
▁hot	-9.21657
▁hold	-9.21741
▁apply	-9.21978
time	-9.22282
▁answer	-9.224
▁O	-9.22519
▁International	-9.22523
▁vehicle	-9.22554
▁India	-9.22682
▁cases	-9.22826
▁national	-9.22857
▁successful	-9.22892
▁saw	-9.23038
▁50	-9.23119
▁myself	-9.2315
▁friend	-9.2316
c	-9.23264
▁photo	-9.23396
▁interesting	-9.23426
▁posted	-9.23431
R	-9.23519
▁machine	-9.23708
▁written	-9.2379
▁decided	-9.23884
▁applications	-9.23983
▁interested	-9.24018
▁commercial	-9.24081
▁fresh	-9.24085
▁employees	-9.24174
▁legal	-9.24399
▁lost	-9.2445
▁West	-9.24545
▁goes	-9.24565
▁London	-9.24633
▁opportunities	-9.24749
▁moment	-9.25164
▁word	-9.25236
▁remember	-9.25419
▁Christmas	-9.25456
▁client	-9.25473
▁H	-9.25647
▁tool	-9.25756
▁spend	-9.25816
▁Of	-9.25825
▁TV	-9.25828
.”	-9.26238
▁25	-9.26238
▁watch	-9.26306
▁developed	-9.26322
▁June	-9.26378
▁High	-9.26443
▁construction	-9.2645
▁English	-9.26635
On	-9.26874
▁green	-9.26897
l	-9.26975
▁offering	-9.27163
▁wonderful	-9.27205
▁hit	-9.27259
▁16	-9.27363
▁sites	-9.27379
▁Friday	-9.27441
–	-9.27683
All	-9.2788
▁healthy	-9.27953
▁section	-9.27976
▁24	-9.28191
▁goals	-9.28223
▁18	-9.28473
▁Just	-9.28582
▁heat	-9.28667
My	-9.28768
▁Facebook	-9.28924
▁regular	-9.28952
At	-9.29423
▁groups	-9.29566
▁San	-9.29733
▁begin	-9.29818
▁expected	-9.29855
▁starting	-9.29871
▁wish	-9.30017
▁base	-9.3014
▁moving	-9.30174
▁began	-9.30177
▁subject	-9.30185
▁hotel	-9.30201
▁growing	-9.30262
F	-9.30297
▁China	-9.30322
▁significant	-9.305
▁fine	-9.30557
en	-9.30571
://	-9.30592
▁co	-9.30688
▁ground	-9.30873
▁2019	-9.30995
▁hear	-9.31001
▁hands	-9.31066
▁thinking	-9.31091
▁quick	-9.31099
▁screen	-9.31121
▁investment	-9.31147
▁Inc	-9.31343
▁towards	-9.31388
L	-9.3139
▁land	-9.31561
!!	-9.3157
▁sign	-9.31909
▁entry	-9.3205
▁guide	-9.32084
▁pain	-9.3213
▁nature	-9.32173
▁grow	-9.32191
▁Then	-9.32273
▁limited	-9.32366
▁fall	-9.32498
▁families	-9.32531
▁recommend	-9.3255
▁sometimes	-9.32565
▁Service	-9.32581
▁...	-9.32674
▁became	-9.32686
▁platform	-9.32954
▁positive	-9.33019
▁Group	-9.33184
▁language	-9.33326
▁places	-9.33418
▁Mr	-9.33749
▁definitely	-9.3389
▁14	-9.3397
▁touch	-9.3418
▁experienced	-9.34356
▁January	-9.34534
▁hour	-9.34623
▁exactly	-9.34671
b	-9.34727
▁bed	-9.34746
▁individuals	-9.34872
▁cool	-9.34879
▁wedding	-9.34931
▁President	-9.34974
▁wood	-9.35067
▁serve	-9.35134
▁stock	-9.35256
▁benefit	-9.35265
▁stand	-9.35303
▁shop	-9.35345
▁gift	-9.35415
▁internet	-9.35609
▁message	-9.35756
▁term	-9.35779
One	-9.35796
▁situation	-9.35797
▁relationship	-9.35808
▁bar	-9.35824
▁released	-9.35847
▁Free	-9.3589
▁pick	-9.35914
▁easier	-9.35953
▁break	-9.35977
▁dog	-9.36019
▁pictures	-9.36031
▁effect	-9.36111
▁published	-9.36138
▁Health	-9.36302
▁understanding	-9.36329
▁advice	-9.36361
▁damage	-9.36427
▁ones	-9.36467
▁join	-9.36864
▁plant	-9.36876
▁July	-9.37082
▁Also	-9.37125
▁speed	-9.3717
▁California	-9.37186
▁match	-9.37197
▁physical	-9.37198
of	-9.37212
▁loved	-9.37265
▁--	-9.37312
▁fire	-9.3741
▁custom	-9.37432
▁Department	-9.37654
▁former	-9.3778
▁request	-9.37799
an	-9.37819
▁region	-9.38011
▁death	-9.38132
▁eye	-9.38195
▁cash	-9.38242
▁2017	-9.38244
▁Saturday	-9.38328
▁V	-9.38379
▁reduce	-9.38409
▁highest	-9.38424
▁previous	-9.38568
st	-9.38571
▁furniture	-9.38574
▁seem	-9.38584
▁wait	-9.38609
After	-9.38842
▁expect	-9.38918
▁September	-9.38943
▁weekend	-9.3899
▁offered	-9.39202
▁considered	-9.39203
▁Sunday	-9.39227
5	-9.39228
▁round	-9.39266
▁glass	-9.39279
▁X	-9.39563
▁difference	-9.396
▁stage	-9.39695
▁budget	-9.39729
▁October	-9.39906
▁note	-9.39994
▁text	-9.40116
▁feeling	-9.40399
▁W	-9.40742
▁deep	-9.40751
▁method	-9.41148
▁stories	-9.414
▁led	-9.41649
▁comfortable	-9.41737
▁helping	-9.41754
▁pages	-9.41864
▁baby	-9.41963
▁spent	-9.42013
▁sell	-9.42138
▁finish	-9.422
▁delivery	-9.42209
▁pressure	-9.42214
▁largest	-9.42267
▁College	-9.42294
▁schools	-9.42411
▁active	-9.42462
▁rates	-9.42465
▁felt	-9.42518
▁setting	-9.42544
▁devices	-9.42546
▁supply	-9.42702
▁feet	-9.42717
▁culture	-9.42789
p	-9.429
▁overall	-9.42955
▁display	-9.42966
▁analysis	-9.42978
▁activity	-9.43128
@	-9.4332
▁existing	-9.4334
▁Most	-9.43357
▁ideal	-9.43366
▁truly	-9.43621
▁paid	-9.43679
▁Services	-9.43706
▁happen	-9.4378
▁creative	-9.43816
▁degree	-9.43859
▁double	-9.43886
▁charge	-9.43894
▁purpose	-9.43896
▁movie	-9.44009
▁Co	-9.44096
▁repair	-9.44257
N	-9.44363
▁wrong	-9.44427
▁selection	-9.44469
▁weather	-9.44491
▁Windows	-9.445
▁avoid	-9.44561
▁sent	-9.44759
▁response	-9.44848
▁December	-9.44885
▁regarding	-9.44936
▁November	-9.45034
▁Street	-9.45035
▁basic	-9.45108
▁completed	-9.4524
▁Don	-9.45246
O	-9.45466
▁college	-9.45501
▁wasn	-9.45542
it	-9.45588
▁firm	-9.45612
▁rights	-9.45637
▁played	-9.45674
▁gave	-9.45743
▁Business	-9.46096
▁tried	-9.46127
▁lots	-9.46391
▁|	-9.46494
▁beginning	-9.46581
▁13	-9.46591
▁files	-9.46733
▁coffee	-9.46746
able	-9.46787
▁estate	-9.46788
▁achieve	-9.47002
▁function	-9.47052
That	-9.47117
▁condition	-9.47118
▁window	-9.472
▁Best	-9.47237
▁More	-9.4729
▁Black	-9.47373
▁effort	-9.47417
▁essential	-9.4749
▁direct	-9.47547
▁basis	-9.47603
▁East	-9.47616
▁player	-9.47707
®	-9.47723
▁2016	-9.47807
▁produce	-9.47896
▁annual	-9.48001
▁unit	-9.48034
▁select	-9.48136
▁Or	-9.48172
▁beyond	-9.48269
▁heard	-9.48352
▁trade	-9.4839
▁brought	-9.48706
▁blood	-9.48836
▁challenge	-9.48867
▁gold	-9.48892
▁eat	-9.49055
▁court	-9.49284
▁homes	-9.49358
▁Be	-9.49373
▁Europe	-9.49435
▁40	-9.49464
h	-9.49517
▁certainly	-9.49541
▁Internet	-9.496
▁responsible	-9.49779
▁protection	-9.49826
▁bottom	-9.49836
▁tour	-9.49898
▁payment	-9.4991
▁button	-9.49944
▁gets	-9.5002
▁finally	-9.50077
▁Many	-9.50082
▁pieces	-9.50282
▁protect	-9.50291
▁uses	-9.50614
▁complex	-9.50923
as	-9.51054
▁garden	-9.51131
▁First	-9.51315
▁journey	-9.51325
▁announced	-9.51373
▁political	-9.51401
▁European	-9.51457
▁blue	-9.51568
▁Monday	-9.51615
▁Australia	-9.51666
▁Canada	-9.51687
▁surface	-9.51705
▁plus	-9.52062
▁cleaning	-9.52383
▁experts	-9.52394
▁useful	-9.52406
▁mother	-9.52426
▁economic	-9.52544
▁immediately	-9.52653
▁served	-9.52773
▁gas	-9.52815
▁Get	-9.52891
▁cold	-9.52916
▁extremely	-9.52928
▁engine	-9.53035
▁August	-9.53063
▁Great	-9.53099
▁character	-9.53136
▁deliver	-9.53249
▁powerful	-9.53328
▁Even	-9.53454
▁dry	-9.53465
▁warm	-9.53527
▁thanks	-9.5363
▁nearly	-9.5367
▁teams	-9.53711
▁cards	-9.53783
▁strategy	-9.53912
▁effects	-9.53916
▁schedule	-9.53988
▁reasons	-9.54177
am	-9.54228
▁eyes	-9.54231
▁Can	-9.54274
▁tips	-9.54288
▁driving	-9.5432
▁camera	-9.5432
▁appropriate	-9.54677
▁item	-9.54725
▁patient	-9.54798
▁particularly	-9.54932
▁Association	-9.55056
▁holiday	-9.55191
▁pool	-9.55229
▁sports	-9.55448
▁February	-9.55565
▁professionals	-9.55609
▁steel	-9.55723
▁campaign	-9.56055
▁sharing	-9.56116
▁helped	-9.56137
▁wine	-9.56178
▁changed	-9.56347
▁multi	-9.56351
▁Each	-9.56357
▁dedicated	-9.56559
▁stuff	-9.5658
▁steps	-9.56649
▁White	-9.56807
▁turned	-9.56838
▁shopping	-9.57017
▁finished	-9.57077
▁Company	-9.57244
▁maybe	-9.57253
▁structure	-9.57403
▁reviews	-9.57425
Do	-9.57544
▁title	-9.57606
▁super	-9.57732
▁increased	-9.57792
▁Art	-9.57837
▁police	-9.57841
▁wear	-9.57881
▁pass	-9.5791
▁miles	-9.5794
▁disease	-9.57974
▁lines	-9.57977
▁Design	-9.5809
▁official	-9.58198
co	-9.5828
▁ahead	-9.58398
▁reports	-9.58407
▁sold	-9.58436
▁welcome	-9.58478
”.	-9.58498
▁science	-9.58505
us	-9.58578
▁race	-9.58646
▁models	-9.58692
▁winter	-9.58693
▁Council	-9.58784
▁Office	-9.58837
▁prevent	-9.59003
▁numbers	-9.5901
H	-9.5908
▁church	-9.59199
▁associated	-9.59226
▁woman	-9.5933
▁print	-9.59355
mm	-9.59454
▁Let	-9.59487
V	-9.59631
▁assist	-9.59637
▁un	-9.59657
▁update	-9.59667
▁owner	-9.59693
▁larger	-9.5984
▁alone	-9.59989
▁son	-9.60063
These	-9.60063
▁Once	-9.60094
▁band	-9.60178
▁Air	-9.60237
▁knew	-9.60473
▁soft	-9.60487
▁allowed	-9.60502
▁saying	-9.60655
▁views	-9.60719
▁technical	-9.60772
▁secure	-9.60838
▁colors	-9.6098
▁established	-9.61026
▁friendly	-9.61046
▁21	-9.61137
▁session	-9.6115
▁manage	-9.61165
▁traffic	-9.6119
▁prior	-9.61289
▁guests	-9.61326
▁covered	-9.61362
old	-9.6138
▁middle	-9.61461
▁methods	-9.61494
▁greater	-9.61565
▁partner	-9.61611
▁challenges	-9.61635
W	-9.6164
▁advanced	-9.61814
▁facilities	-9.61833
▁requires	-9.61972
▁Thanks	-9.62002
▁maintain	-9.62031
▁carry	-9.62087
▁organizations	-9.62151
▁rooms	-9.62346
pm	-9.62366
▁remove	-9.62396
▁spot	-9.62457
While	-9.62524
▁handle	-9.62552
▁income	-9.62561
▁normal	-9.62586
▁efforts	-9.62619
▁enter	-9.62804
▁standards	-9.62857
▁advantage	-9.62885
▁song	-9.6298
▁trust	-9.62987
▁serious	-9.63
▁moved	-9.63064
▁states	-9.63071
▁connection	-9.63102
day	-9.63107
▁onto	-9.63165
▁maintenance	-9.63178
▁installation	-9.63441
is	-9.63524
▁communication	-9.63546
▁listed	-9.63713
nd	-9.6373
▁finding	-9.63781
Please	-9.63845
▁jobs	-9.63914
▁club	-9.63955
No	-9.64038
▁reported	-9.64066
▁park	-9.64162
▁although	-9.64262
▁opening	-9.64374
▁outdoor	-9.64385
▁shown	-9.64437
▁shape	-9.64524
▁aren	-9.6456
▁met	-9.64621
▁bathroom	-9.64665
▁earlier	-9.64846
▁bank	-9.6497
▁2015	-9.65034
▁tree	-9.65101
▁metal	-9.65154
▁studies	-9.65214
▁audience	-9.65223
▁Since	-9.65354
▁remain	-9.65374
▁plenty	-9.65455
▁background	-9.65482
▁17	-9.65587
▁developing	-9.656
▁dining	-9.6567
▁shared	-9.65716
▁discuss	-9.65755
▁Jesus	-9.6617
▁cancer	-9.66218
▁rules	-9.66237
▁explore	-9.66243
▁shall	-9.66318
▁appear	-9.66339
▁dark	-9.66369
▁loan	-9.66477
▁competition	-9.66486
▁teaching	-9.66609
term	-9.66804
▁restaurant	-9.6685
▁Are	-9.67056
▁mix	-9.67105
▁primary	-9.67133
▁evening	-9.67343
▁critical	-9.67357
▁compared	-9.67417
▁driver	-9.67489
▁host	-9.67534
▁Red	-9.67542
▁biggest	-9.67615
▁balance	-9.6762
6	-9.67655
▁Club	-9.67688
▁visitors	-9.67753
They	-9.67849
▁owners	-9.67921
▁billion	-9.67935
▁born	-9.67946
▁communities	-9.68033
▁leaders	-9.68135
▁Board	-9.68201
▁keeping	-9.68268
▁wants	-9.68304
▁named	-9.68339
▁fans	-9.68412
▁fish	-9.68443
▁cars	-9.68466
▁contains	-9.68498
▁followed	-9.6858
▁determine	-9.68729
▁statement	-9.68756
▁plants	-9.68889
▁fill	-9.68906
▁techniques	-9.68995
▁looked	-9.69087
▁Washington	-9.69138
Now	-9.69295
▁stress	-9.69367
▁Pro	-9.69413
▁classes	-9.69439
▁properties	-9.69501
▁experiences	-9.69525
▁notice	-9.69546
▁seeing	-9.6955
▁wife	-9.69574
▁heavy	-9.69581
▁beauty	-9.69585
▁drop	-9.6962
+	-9.69711
▁mission	-9.69771
▁sleep	-9.69785
▁comfort	-9.69818
▁director	-9.69964
ness	-9.70157
▁ball	-9.70186
▁seven	-9.70204
▁target	-9.70229
▁David	-9.70234
▁Management	-9.70249
free	-9.70264
▁expert	-9.7029
▁talking	-9.70292
▁#	-9.70363
▁Road	-9.70443
▁comments	-9.70503
▁coverage	-9.70547
z	-9.70575
▁voice	-9.70586
▁classic	-9.70648
▁French	-9.70649
▁testing	-9.70723
▁beach	-9.70748
▁task	-9.70761
▁adding	-9.70765
▁0	-9.7077
▁fan	-9.70771
▁author	-9.70797
▁buying	-9.70848
▁links	-9.70952
▁shot	-9.70989
▁haven	-9.71023
▁act	-9.71059
▁produced	-9.71112
▁Thursday	-9.71128
▁60	-9.71161
▁package	-9.71169
▁conference	-9.71201
org	-9.71234
▁correct	-9.71399
▁war	-9.7149
▁sun	-9.71563
▁IT	-9.71731
▁perform	-9.71764
▁speak	-9.72129
▁learned	-9.72147
▁letter	-9.72204
▁father	-9.7221
line	-9.72327
no	-9.7238
▁fee	-9.72403
▁demand	-9.72439
▁Why	-9.72529
▁famous	-9.72538
▁copy	-9.72538
▁Research	-9.72614
▁elements	-9.72651
▁evidence	-9.72677
▁generally	-9.72691
▁Apple	-9.7279
▁movement	-9.72825
▁British	-9.72857
▁spring	-9.72894
▁award	-9.72906
▁Make	-9.72945
▁connect	-9.73043
▁Institute	-9.73072
▁sweet	-9.73119
▁artist	-9.73124
▁Texas	-9.73204
▁De	-9.73328
▁couldn	-9.73514
▁sector	-9.73532
▁placed	-9.73731
▁parties	-9.73862
▁gain	-9.73938
▁prepared	-9.73943
▁selected	-9.73968
▁press	-9.74137
▁map	-9.74146
▁THE	-9.74225
▁residents	-9.74265
▁funds	-9.74285
▁waiting	-9.74305
▁designs	-9.74376
▁server	-9.744
▁workers	-9.74433
▁Tuesday	-9.74527
▁whose	-9.74601
▁claim	-9.74663
▁exciting	-9.74718
by	-9.7477
▁himself	-9.7478
▁presented	-9.74798
An	-9.7485
▁perhaps	-9.74867
▁sort	-9.75229
▁combination	-9.75346
•	-9.75346
▁decide	-9.75478
▁exercise	-9.75549
▁bag	-9.75552
▁anti	-9.75556
u	-9.75584
▁Go	-9.75614
▁Thank	-9.75639
▁forget	-9.75706
▁relevant	-9.75726
▁capital	-9.75747
▁album	-9.7575
▁capacity	-9.75827
▁numerous	-9.75869
▁kept	-9.7589
▁figure	-9.75925
▁recipe	-9.75981
▁straight	-9.76079
▁gone	-9.7608
▁changing	-9.76213
▁thousands	-9.76214
▁affordable	-9.76222
▁operations	-9.76303
▁Green	-9.76308
▁+	-9.76498
▁forms	-9.76509
ie	-9.76529
X	-9.76548
▁strength	-9.76561
▁efficient	-9.76591
▁See	-9.76671
▁excited	-9.76934
Q	-9.76966
▁install	-9.76993
▁Church	-9.76995
▁bedroom	-9.77025
▁rich	-9.77056
▁essay	-9.77068
▁cross	-9.77104
▁Web	-9.77164
▁concept	-9.77173
▁Well	-9.77262
▁practices	-9.7732
▁husband	-9.7734
for	-9.77342
­	-9.77402
▁contract	-9.77465
▁Wednesday	-9.77472
▁operating	-9.77506
▁century	-9.77533
▁videos	-9.77535
▁Lake	-9.77556
▁lack	-9.77568
▁aware	-9.77629
▁solid	-9.77642
▁helpful	-9.77679
▁stone	-9.77738
▁separate	-9.77902
▁Her	-9.77903
▁General	-9.7792
▁street	-9.77956
▁older	-9.77983
▁taste	-9.78081
▁actual	-9.78083
▁sea	-9.78202
▁characters	-9.78297
▁leader	-9.78452
▁ingredients	-9.78625
▁dinner	-9.78738
▁Africa	-9.78745
▁therefore	-9.78752
▁selling	-9.78771
▁19	-9.78781
▁Check	-9.78935
▁proper	-9.78955
▁values	-9.79016
▁comment	-9.79024
▁Life	-9.79054
▁expensive	-9.7908
▁status	-9.79105
▁corporate	-9.7921
▁smaller	-9.79242
▁becoming	-9.79246
▁path	-9.79295
▁force	-9.79339
▁plastic	-9.79405
▁installed	-9.79422
▁artists	-9.79428
www	-9.79526
▁vision	-9.79548
▁menu	-9.7962
▁facility	-9.79638
▁expertise	-9.79711
▁La	-9.79763
▁fashion	-9.7978
▁population	-9.79783
▁fantastic	-9.79837
▁Chinese	-9.79845
▁River	-9.79976
▁Good	-9.79992
▁2014	-9.80072
7	-9.80128
▁transfer	-9.80134
▁identify	-9.80188
▁focused	-9.8022
▁factors	-9.80225
▁memory	-9.80255
▁minute	-9.80327
▁medium	-9.80365
▁core	-9.80567
▁opened	-9.80658
▁names	-9.80671
▁eight	-9.80672
Here	-9.80711
▁Florida	-9.80779
▁economy	-9.80786
▁Click	-9.80816
▁Director	-9.80817
▁flow	-9.80892
▁temperature	-9.80919
▁passed	-9.80953
▁progress	-9.81337
▁Court	-9.81447
▁train	-9.81528
▁president	-9.81638
▁ride	-9.81694
2.	-9.81738
▁reality	-9.81807
▁War	-9.8194
▁sugar	-9.82214
▁theme	-9.82231
▁Today	-9.82261
▁100%	-9.823
▁showing	-9.82393
▁interior	-9.82452
▁Education	-9.82467
▁agree	-9.8247
▁awesome	-9.82656
▁independent	-9.82725
out	-9.82759
▁decisions	-9.82787
▁processes	-9.82821
▁lovely	-9.82841
▁society	-9.82988
J	-9.83017
▁Use	-9.83073
▁paint	-9.83073
8	-9.83115
▁Trump	-9.83146
▁military	-9.83189
▁ice	-9.8325
▁maximum	-9.83267
▁frame	-9.83281
▁Foundation	-9.83437
rd	-9.83534
▁windows	-9.83552
▁direction	-9.83636
▁documents	-9.83648
▁detail	-9.83836
▁runs	-9.83868
▁happens	-9.83886
▁Re	-9.83928
▁injury	-9.83962
▁Bay	-9.84041
▁courses	-9.84124
one	-9.84203
▁lose	-9.84289
▁bought	-9.84306
▁wrote	-9.84407
▁units	-9.84422
▁properly	-9.84447
▁Year	-9.84485
▁Online	-9.84532
▁enjoyed	-9.84569
▁spending	-9.8463
▁distance	-9.84644
▁treat	-9.84739
▁innovative	-9.84746
▁manager	-9.84835
▁happened	-9.84857
▁updated	-9.84933
▁foot	-9.84936
ton	-9.84953
▁serving	-9.84959
▁brain	-9.85009
▁proud	-9.85072
▁Bank	-9.85096
▁Paul	-9.85099
▁thank	-9.85161
▁www	-9.85328
▁federal	-9.85356
▁walking	-9.85377
▁daughter	-9.8541
▁Act	-9.85424
▁sounds	-9.85454
▁King	-9.85571
▁alternative	-9.85626
▁meaning	-9.85675
▁sit	-9.85748
▁becomes	-9.85752
▁brings	-9.85812
▁rock	-9.85841
▁flat	-9.85888
▁central	-9.8598
▁assistance	-9.86009
▁discover	-9.86045
▁continued	-9.86161
▁centre	-9.86174
▁initial	-9.86229
▁stores	-9.86279
▁allowing	-9.86315
▁connected	-9.86342
▁dream	-9.8643
▁format	-9.8645
▁detailed	-9.86483
▁absolutely	-9.86562
▁ten	-9.86567
▁vehicles	-9.86583
▁leadership	-9.86621
▁length	-9.86752
f	-9.86772
▁relationships	-9.86812
v	-9.86829
▁whatever	-9.86892
Your	-9.86911
▁tickets	-9.86923
▁managed	-9.87129
▁master	-9.87146
▁locations	-9.8721
▁teachers	-9.87228
▁fees	-9.87246
▁concerns	-9.87271
▁remains	-9.87341
▁cheap	-9.87351
▁recommended	-9.87381
▁station	-9.87403
▁provider	-9.8746
▁reliable	-9.87545
▁partners	-9.8765
▁girl	-9.87688
▁automatically	-9.87801
▁fight	-9.87906
▁websites	-9.87917
▁leaving	-9.87932
less	-9.87952
▁Island	-9.87967
▁markets	-9.88007
▁suitable	-9.88008
▁calls	-9.88018
▁agency	-9.88104
▁smart	-9.88105
▁mid	-9.88123
▁block	-9.88135
▁USA	-9.88181
▁Amazon	-9.88183
▁drug	-9.88185
!!!	-9.88219
▁Because	-9.88225
▁poor	-9.88227
▁Beach	-9.88242
▁Although	-9.88254
▁cities	-9.8839
▁trees	-9.88391
▁scale	-9.88423
▁busy	-9.88425
▁teacher	-9.88445
▁minimum	-9.88488
▁sets	-9.88544
▁Whether	-9.8855
▁filled	-9.88552
▁senior	-9.88608
▁parking	-9.88625
▁records	-9.88665
▁Science	-9.8869
▁closed	-9.88736
▁Indian	-9.88806
▁shipping	-9.88817
at	-9.88858
▁posts	-9.88863
▁respect	-9.88906
▁James	-9.88913
like	-9.89025
▁score	-9.89037
▁corner	-9.89184
▁mentioned	-9.89274
▁continues	-9.89367
▁sources	-9.89412
▁applied	-9.89464
▁panel	-9.89472
▁colour	-9.89524
▁edge	-9.89594
▁Law	-9.89617
▁caused	-9.89625
▁encourage	-9.89683
▁cream	-9.8969
▁operation	-9.89693
▁funding	-9.8991
▁technologies	-9.89942
▁square	-9.89991
▁category	-9.90034
▁toward	-9.90146
▁policies	-9.9017
▁info	-9.9021
▁tea	-9.90327
▁delicious	-9.90355
▁agreement	-9.90361
▁England	-9.90448
▁waste	-9.90541
▁eating	-9.90555
▁topic	-9.90577
▁leaves	-9.90589
▁brands	-9.90592
▁animals	-9.90657
▁scene	-9.90735
▁Microsoft	-9.90738
▁22	-9.90777
▁Valley	-9.90891
▁launch	-9.90955
▁starts	-9.90982
▁Community	-9.91006
▁Program	-9.91096
▁department	-9.91108
▁strategies	-9.91202
▁shower	-9.91203
▁wouldn	-9.91258
▁Central	-9.91284
▁prepare	-9.91298
▁Michael	-9.91321
▁System	-9.91332
▁joined	-9.91333
▁doors	-9.91344
▁People	-9.9138
▁Music	-9.91413
▁increasing	-9.91557
▁star	-9.91578
▁pair	-9.91651
▁Have	-9.91658
▁watching	-9.91722
▁2013	-9.91824
1.	-9.91835
▁putting	-9.91897
▁deals	-9.92198
▁songs	-9.92268
▁processing	-9.92373
▁Android	-9.92388
▁majority	-9.92389
▁document	-9.92427
▁committed	-9.92443
▁cell	-9.92507
▁miss	-9.92587
▁practical	-9.92589
3.	-9.926
▁advance	-9.926
▁peace	-9.92608
▁Open	-9.92624
▁PC	-9.92655
▁dress	-9.92677
▁presence	-9.92756
▁combined	-9.92811
▁depending	-9.92896
▁Call	-9.92938
▁doctor	-9.92987
▁flowers	-9.93128
▁approximately	-9.93339
▁accept	-9.93345
▁Top	-9.93384
▁visiting	-9.93399
▁girls	-9.93416
▁battery	-9.93426
▁typically	-9.93434
▁Love	-9.93536
▁Blue	-9.9355
▁Development	-9.93638
▁promote	-9.93764
▁importance	-9.93842
▁Add	-9.93855
Thanks	-9.93906
▁feedback	-9.93992
▁http	-9.94006
▁academic	-9.94192
▁generation	-9.94266
▁lighting	-9.9438
apos	-9.9439
▁seat	-9.94426
▁slightly	-9.94444
▁bus	-9.94485
She	-9.94509
▁anywhere	-9.94558
▁hospital	-9.9458
▁claims	-9.94598
▁roof	-9.9465
▁raised	-9.94693
▁otherwise	-9.94771
▁2012	-9.94796
▁Time	-9.94894
▁extensive	-9.95094
▁environmental	-9.95145
▁comprehensive	-9.95301
▁profile	-9.95305
U	-9.95396
▁auto	-9.95405
▁Will	-9.95487
▁previously	-9.95516
▁drink	-9.95516
▁choices	-9.95661
▁lunch	-9.95722
TM	-9.95727
▁ourselves	-9.95856
▁inspired	-9.95895
▁worry	-9.95901
▁aspects	-9.95962
▁exchange	-9.96017
▁attend	-9.96062
▁guys	-9.96085
▁Take	-9.96098
▁industrial	-9.96142
▁winning	-9.96249
▁nation	-9.96311
▁debt	-9.96382
▁bill	-9.96392
▁island	-9.96404
▁components	-9.96435
▁spread	-9.96535
▁meal	-9.96599
▁Twitter	-9.96649
le	-9.96713
▁thoughts	-9.96772
▁emergency	-9.96815
▁attack	-9.96829
▁Hall	-9.96896
▁slow	-9.9695
▁confidence	-9.9707
▁internal	-9.97164
▁seconds	-9.97174
▁mental	-9.97211
ic	-9.97467
▁Power	-9.97627
▁competitive	-9.97675
▁smooth	-9.97722
▁interview	-9.97773
▁pattern	-9.97843
▁v	-9.97882
▁error	-9.97927
▁fabric	-9.98101
▁thus	-9.98287
▁suggest	-9.983
▁fruit	-9.98314
▁iPhone	-9.98317
▁responsibility	-9.98328
".	-9.98399
▁performed	-9.98429
▁specifically	-9.98557
▁Centre	-9.98558
▁guarantee	-9.98703
▁employee	-9.98761
▁Team	-9.98773
▁Find	-9.98774
▁Their	-9.98813
▁appointment	-9.98966
▁clearly	-9.98976
▁District	-9.99006
>	-9.99018
▁flight	-9.99062
▁wind	-9.99267
▁Every	-9.99384
▁restaurants	-9.99431
▁adults	-9.99437
▁mostly	-9.99458
▁dating	-9.99466
▁fuel	-9.99485
▁suit	-9.99546
▁valuable	-9.99604
▁dance	-9.99628
▁leads	-9.99694
▁audio	-9.99767
▁foreign	-9.9978
▁cloud	-9.99864
▁diet	-9.99874
▁Data	-9.99897
▁actions	-9.99982
▁Christ	-10.0002
▁reference	-10.0005
▁fair	-10.0009
▁delivered	-10.0015
▁register	-10.0025
▁Big	-10.0028
▁Over	-10.0035
▁updates	-10.0046
▁discussion	-10.0055
▁died	-10.0062
▁breakfast	-10.0063
▁saving	-10.0063
▁cultural	-10.0068
▁Lord	-10.0074
▁faster	-10.0075
▁During	-10.0085
▁quarter	-10.0095
▁providers	-10.0095
▁Download	-10.0112
▁bike	-10.0113
▁attempt	-10.0114
▁climate	-10.0123
▁Post	-10.0131
▁participants	-10.0134
▁monthly	-10.0136
▁housing	-10.0153
▁consumers	-10.0154
▁fat	-10.0157
▁cells	-10.0162
▁missing	-10.0163
▁south	-10.0164
▁prefer	-10.0166
▁launched	-10.0166
▁retail	-10.018
▁database	-10.0185
▁knows	-10.0191
▁Star	-10.0205
▁covers	-10.0209
▁ended	-10.021
▁appears	-10.0213
▁supplies	-10.0215
▁fix	-10.022
▁showed	-10.0222
▁Gold	-10.0237
▁Society	-10.0237
From	-10.024
▁truth	-10.024
▁News	-10.0241
▁raise	-10.0255
▁apps	-10.0258
▁Project	-10.0268
▁affect	-10.027
▁Care	-10.027
▁commitment	-10.0274
▁educational	-10.0276
▁draw	-10.0285
▁surrounding	-10.0285
▁calling	-10.0294
▁articles	-10.0301
▁enable	-10.0309
Why	-10.031
▁supported	-10.0311
▁seek	-10.0312
ia	-10.0319
▁Public	-10.0325
▁species	-10.0331
▁Christian	-10.0342
▁library	-10.0342
▁notes	-10.0344
▁totally	-10.0352
▁manner	-10.0365
▁negative	-10.0375
▁asking	-10.0375
▁resolution	-10.0378
▁lights	-10.0382
▁replacement	-10.0386
▁despite	-10.0399
▁volume	-10.04
▁cooking	-10.042
▁23	-10.0422
▁radio	-10.0433
▁boat	-10.0438
▁bringing	-10.0442
▁200	-10.045
▁fear	-10.0457
▁football	-10.0462
By	-10.0463
Some	-10.0465
▁passion	-10.0468
▁Super	-10.0479
▁rise	-10.0489
▁unless	-10.0489
▁electric	-10.0493
▁obtain	-10.0494
▁listen	-10.05
▁Other	-10.05
▁advertising	-10.0506
▁trading	-10.0508
▁Water	-10.0508
▁cheese	-10.0511
▁faith	-10.0518
▁hearing	-10.0524
▁eventually	-10.0527
▁appearance	-10.0528
▁chocolate	-10.0529
▁manufacturing	-10.0532
▁guest	-10.0533
▁regularly	-10.0533
▁rental	-10.0534
▁signed	-10.0537
▁meant	-10.0537
▁approved	-10.0539
However	-10.0547
▁surgery	-10.0552
▁Museum	-10.0553
▁effectively	-10.0562
10	-10.0563
▁2018.	-10.0565
▁registered	-10.0565
▁accounts	-10.0568
▁birthday	-10.0568
▁introduced	-10.0573
▁reached	-10.0581
▁drivers	-10.0584
▁dogs	-10.0584
▁pet	-10.0585
▁Book	-10.0589
▁Committee	-10.0592
▁AND	-10.0598
▁incredible	-10.0598
▁chicken	-10.0602
▁Z	-10.0606
о	-10.0617
▁Japan	-10.0621
off	-10.0629
▁instance	-10.0639
▁hire	-10.0642
▁Technology	-10.0643
▁Family	-10.0645
▁crusher	-10.0646
е	-10.065
▁Al	-10.0653
▁perfectly	-10.0653
▁grade	-10.0656
▁cutting	-10.0665
▁resource	-10.0669
▁salt	-10.067
▁Social	-10.0675
▁France	-10.0679
▁28	-10.069
▁purchased	-10.069
▁Bar	-10.0706
▁afternoon	-10.071
▁seeking	-10.0711
▁engineering	-10.0717
▁measure	-10.0723
▁functions	-10.0725
▁hundreds	-10.0728
▁returned	-10.0739
▁trained	-10.0755
▁League	-10.0757
▁bright	-10.0762
▁therapy	-10.0766
▁vote	-10.0767
te	-10.0785
▁trial	-10.0792
▁settings	-10.0795
▁opinion	-10.0798
▁Chicago	-10.0802
▁greatest	-10.0805
▁Information	-10.0812
▁appreciate	-10.0812
▁snow	-10.0813
▁Government	-10.0816
9	-10.0816
▁Two	-10.0816
▁tend	-10.0819
▁consumer	-10.0819
▁buildings	-10.0839
▁contain	-10.0841
▁Hotel	-10.0841
▁switch	-10.0841
▁removed	-10.0845
▁limit	-10.0851
▁animal	-10.0855
▁supporting	-10.0859
▁chair	-10.0866
▁inspiration	-10.0868
▁improved	-10.087
▁teeth	-10.0872
▁north	-10.0877
▁desire	-10.0877
▁participate	-10.0879
▁leather	-10.088
▁500	-10.0883
▁painting	-10.089
▁feed	-10.0896
▁ship	-10.0899
▁mode	-10.0903
which	-10.0904
▁Any	-10.0906
de	-10.0908
▁Award	-10.091
▁paying	-10.0927
▁sitting	-10.0927
▁Mark	-10.0938
▁Union	-10.0943
▁described	-10.0946
▁enhance	-10.0951
▁efficiency	-10.0953
▁fixed	-10.0958
▁coach	-10.0961
▁Hill	-10.0965
▁German	-10.0973
▁pop	-10.0974
▁measures	-10.0977
▁studio	-10.0978
▁Security	-10.0982
▁sessions	-10.0983
▁chain	-10.0994
▁Contact	-10.0998
▁organic	-10.1
▁replace	-10.1
Thank	-10.1002
▁readers	-10.1018
na	-10.1024
Once	-10.1034
▁aim	-10.1045
▁luxury	-10.1046
▁realize	-10.1046
▁revenue	-10.1051
▁laws	-10.1054
▁Ltd	-10.1063
▁signs	-10.1076
land	-10.1081
▁sizes	-10.1087
▁procedure	-10.11
▁possibly	-10.11
▁26	-10.1101
▁premium	-10.1105
▁contemporary	-10.1107
▁fields	-10.1108
▁agent	-10.1113
▁solar	-10.1115
▁Man	-10.1116
▁purposes	-10.1116
▁Germany	-10.1117
▁visual	-10.1134
▁influence	-10.1139
▁infrastructure	-10.114
▁presentation	-10.115
▁George	-10.1155
▁village	-10.1169
▁worldwide	-10.1176
▁Me	-10.1178
▁teach	-10.1179
▁push	-10.1183
▁chosen	-10.1185
▁topics	-10.1185
▁bowl	-10.1186
▁guy	-10.1187
▁conversation	-10.1189
▁Both	-10.1193
▁Plus	-10.1194
▁recovery	-10.1199
▁accurate	-10.1206
▁explain	-10.1215
▁sides	-10.122
▁pull	-10.1221
▁catch	-10.1225
▁Mac	-10.1226
▁Y	-10.1227
▁holding	-10.1228
▁electronic	-10.1236
▁district	-10.1237
▁registration	-10.1237
▁dead	-10.1238
▁route	-10.124
▁familiar	-10.1252
▁milk	-10.1257
▁rule	-10.1271
▁sheet	-10.1275
▁creation	-10.1281
▁exam	-10.1288
▁fund	-10.1288
▁feels	-10.1289
if	-10.1295
ville	-10.1295
▁instructions	-10.1297
▁walls	-10.1305
▁Like	-10.132
▁Car	-10.132
we	-10.1332
▁residential	-10.1346
▁owned	-10.1361
▁1,	-10.1362
▁survey	-10.1364
▁sample	-10.1366
▁university	-10.1382
▁Who	-10.1391
▁administration	-10.1391
▁factor	-10.1392
▁considering	-10.1397
▁African	-10.1402
▁aid	-10.1406
▁load	-10.1406
▁cup	-10.1406
▁successfully	-10.141
▁domain	-10.1411
▁discovered	-10.1422
▁mine	-10.143
▁cake	-10.1431
rs	-10.1436
▁landscape	-10.1443
▁Medical	-10.1445
▁accident	-10.1457
▁discount	-10.1466
▁@	-10.1474
▁2011	-10.1478
▁2010	-10.1485
▁m	-10.1502
▁hardware	-10.1507
▁featured	-10.1521
▁interests	-10.1521
▁Yes	-10.1523
▁tough	-10.1528
▁constantly	-10.1536
▁bigger	-10.1537
▁Asia	-10.1537
▁officials	-10.1542
▁submit	-10.1542
▁count	-10.1544
▁guess	-10.1546
▁pack	-10.1548
▁Arts	-10.155
▁exclusive	-10.1553
▁seemed	-10.1562
▁Manager	-10.1569
▁houses	-10.1574
▁sub	-10.1585
▁kinds	-10.1586
▁candidates	-10.1591
ism	-10.1594
▁Australian	-10.16
▁net	-10.1606
▁writer	-10.1618
▁carefully	-10.162
Z	-10.1622
▁foods	-10.1622
▁cast	-10.1626
do	-10.1627
▁27	-10.1627
▁intended	-10.1634
▁wonder	-10.1636
ist	-10.1637
▁shoes	-10.1639
▁mark	-10.1644
▁collect	-10.1647
▁silver	-10.1649
▁90	-10.1653
▁kit	-10.1655
▁Food	-10.1662
Can	-10.1668
▁die	-10.167
▁lifestyle	-10.1674
▁dental	-10.1694
▁charges	-10.1697
▁al	-10.17
▁decades	-10.1702
▁ring	-10.1706
▁lived	-10.1711
▁Media	-10.1722
▁destination	-10.1724
▁Q	-10.1726
▁roll	-10.1729
▁perspective	-10.1729
▁entertainment	-10.1731
▁>	-10.1731
▁favourite	-10.174
▁pan	-10.1743
▁upcoming	-10.1747
▁investors	-10.1751
▁privacy	-10.1763
▁standing	-10.1786
▁pro	-10.1792
▁assets	-10.1793
▁innovation	-10.1795
▁sauce	-10.1798
▁mention	-10.1802
▁tasks	-10.1804
uk	-10.1805
▁examples	-10.1813
▁transport	-10.1813
▁Los	-10.1821
▁stunning	-10.1822
▁Western	-10.1827
▁dollars	-10.1828
▁agencies	-10.1829
▁Women	-10.1831
▁awareness	-10.1835
▁garage	-10.1858
el	-10.186
▁executive	-10.1862
▁styles	-10.1864
▁beat	-10.1866
▁broken	-10.187
▁Mary	-10.1874
▁programme	-10.1878
▁farm	-10.1878
▁stick	-10.1883
▁answers	-10.1884
▁accessible	-10.1886
▁impressive	-10.1891
Yes	-10.1893
▁willing	-10.1898
▁spirit	-10.1902
▁tests	-10.1902
▁rain	-10.1907
▁II	-10.1908
▁machines	-10.1909
▁knowing	-10.1916
▁featuring	-10.1917
▁birth	-10.192
▁remaining	-10.1924
▁improvement	-10.1925
▁holds	-10.1925
▁license	-10.1928
▁apartment	-10.1929
▁manual	-10.1933
▁everyday	-10.1937
▁grown	-10.1938
▁behavior	-10.1943
▁adult	-10.1944
▁diverse	-10.1945
▁doubt	-10.1954
▁Up	-10.1957
▁Japanese	-10.1958
so	-10.196
▁planned	-10.1962
▁expectations	-10.1969
▁qualified	-10.1975
▁Earth	-10.1978
▁symptoms	-10.1983
▁earth	-10.1984
▁carried	-10.1994
4.	-10.1999
▁begins	-10.2006
▁loans	-10.2012
▁Festival	-10.2022
▁challenging	-10.2026
▁arrived	-10.2028
▁payments	-10.203
▁reduced	-10.2032
▁Only	-10.2034
▁ticket	-10.2036
son	-10.2043
▁remote	-10.2046
▁affected	-10.2046
▁causes	-10.205
▁CEO	-10.2051
▁OF	-10.2062
▁novel	-10.2062
w	-10.2074
▁outstanding	-10.2079
end	-10.2081
▁scheduled	-10.2083
▁brown	-10.2093
▁foundation	-10.2094
▁Commission	-10.2095
▁Master	-10.2099
Just	-10.2108
▁meat	-10.2111
▁designer	-10.2112
▁situations	-10.2114
▁distribution	-10.2115
▁gallery	-10.214
▁celebrate	-10.2143
....	-10.2144
▁procedures	-10.2148
▁twice	-10.2166
▁rent	-10.217
▁hosting	-10.217
▁youth	-10.2171
▁yes	-10.2175
▁Real	-10.2183
▁truck	-10.2186
but	-10.2193
▁airport	-10.22
Not	-10.2203
▁rare	-10.2211
▁searching	-10.2215
▁TO	-10.2215
▁rear	-10.2225
▁married	-10.2226
▁clinical	-10.2228
▁certified	-10.2229
net	-10.2231
▁cook	-10.2232
▁Room	-10.2234
▁choosing	-10.2243
▁integrated	-10.2244
▁*	-10.2249
▁bath	-10.225
▁2019.	-10.226
Don	-10.2261
▁significantly	-10.2287
▁treated	-10.2292
▁plays	-10.2294
▁serves	-10.2295
▁accepted	-10.23
▁assessment	-10.2301
▁channel	-10.2302
▁manufacturer	-10.2314
▁Read	-10.2315
▁respond	-10.2315
▁goods	-10.2319
▁spaces	-10.232
▁vital	-10.2334
▁closely	-10.2334
▁equipped	-10.2335
▁shares	-10.2337
▁except	-10.2337
▁concrete	-10.2337
▁employment	-10.2339
▁glad	-10.2341
ley	-10.2345
▁Long	-10.2349
▁cute	-10.2351
▁earn	-10.2352
▁Smith	-10.2353
▁Market	-10.2353
▁emotional	-10.2358
▁layer	-10.2364
▁adventure	-10.2368
▁sport	-10.2377
▁fourth	-10.2379
▁orders	-10.2386
▁80	-10.2395
▁Global	-10.24
▁winner	-10.2402
mail	-10.2403
▁pm	-10.242
▁vs	-10.2424
▁historical	-10.2426
▁Conference	-10.2428
▁partnership	-10.243
▁Series	-10.2432
▁yellow	-10.2433
▁regional	-10.2434
▁Last	-10.2435
▁template	-10.2437
all	-10.2449
▁represent	-10.245
▁receiving	-10.2452
▁matters	-10.246
▁Academy	-10.246
▁iron	-10.2465
▁patterns	-10.2467
▁cycle	-10.2471
▁collaboration	-10.2481
▁appeared	-10.2487
”,	-10.2491
▁c	-10.2491
▁healthcare	-10.2503
▁savings	-10.2505
▁cable	-10.2506
▁nine	-10.2507
▁external	-10.2508
▁whom	-10.251
▁occur	-10.2513
▁logo	-10.2514
▁convenient	-10.2514
▁Party	-10.2515
▁nearby	-10.2516
house	-10.2517
▁caught	-10.2517
▁upper	-10.2523
▁messages	-10.2531
▁quote	-10.2542
▁female	-10.2542
▁Grand	-10.2543
▁engagement	-10.2544
ar	-10.2544
Y	-10.2546
▁frequently	-10.2548
▁atmosphere	-10.2553
▁lessons	-10.2564
▁EU	-10.2564
▁fitness	-10.2565
ity	-10.2568
▁talent	-10.2572
▁mountain	-10.2582
▁imagine	-10.2583
▁massive	-10.2583
▁meetings	-10.2584
ion	-10.2585
▁parent	-10.2585
▁taught	-10.2586
▁facing	-10.2587
▁ease	-10.2591
▁flexible	-10.2593
Are	-10.2603
me	-10.2603
▁brother	-10.2608
▁gifts	-10.2608
▁degrees	-10.2614
▁failure	-10.2616
▁output	-10.2616
▁wearing	-10.2624
▁Italian	-10.2626
▁closer	-10.2627
▁plate	-10.2634
▁Show	-10.2635
▁edition	-10.2637
▁Network	-10.2646
▁Wall	-10.2648
▁battle	-10.2652
а	-10.2652
▁object	-10.2654
▁accessories	-10.2656
▁typical	-10.2662
▁trouble	-10.2665
▁boy	-10.2675
▁context	-10.2676
not	-10.2677
▁mini	-10.2679
▁movies	-10.2703
▁Old	-10.2717
▁35	-10.2718
▁proposed	-10.2719
▁HD	-10.2722
According	-10.2723
▁Minister	-10.273
▁operate	-10.274
go	-10.2743
▁speaking	-10.2744
Is	-10.275
▁domestic	-10.2753
▁apart	-10.2769
▁cat	-10.2775
▁According	-10.2777
▁election	-10.2784
▁recorded	-10.279
▁informed	-10.2798
▁mass	-10.28
▁cent	-10.2801
ne	-10.2801
Since	-10.2804
▁clothes	-10.2805
▁recognized	-10.2819
▁oven	-10.2821
▁river	-10.2823
▁usual	-10.2824
▁manufacturers	-10.2827
▁missed	-10.2829
▁Sun	-10.2832
▁surprise	-10.2833
▁browser	-10.2838
▁concern	-10.284
Many	-10.2843
▁concerned	-10.2845
▁trends	-10.2847
▁researchers	-10.2854
▁electrical	-10.2857
▁en	-10.2868
▁protected	-10.2871
▁quiet	-10.2872
▁supports	-10.2875
▁nor	-10.2882
▁freedom	-10.2884
la	-10.289
▁failed	-10.2896
ra	-10.2896
▁joint	-10.2902
▁Press	-10.2906
▁moments	-10.2911
▁IN	-10.2912
▁vacation	-10.2914
▁photography	-10.2917
▁trend	-10.292
▁Energy	-10.2923
▁Bill	-10.2925
▁exact	-10.2927
▁skill	-10.2928
▁campus	-10.2934
way	-10.2936
▁Israel	-10.2936
▁issued	-10.2936
▁butter	-10.2939
▁attorney	-10.2947
▁native	-10.2952
▁improving	-10.2955
▁medicine	-10.2959
▁mail	-10.2961
▁b	-10.2966
▁monitor	-10.297
▁counter	-10.2985
with	-10.2989
▁PM	-10.2989
▁earned	-10.299
▁w	-10.2993
▁stands	-10.3001
▁determined	-10.3007
un	-10.3008
▁transportation	-10.3014
▁extended	-10.3017
▁2017.	-10.3018
▁killed	-10.3019
▁arrive	-10.3023
▁pleased	-10.3032
▁turns	-10.3036
▁mixed	-10.3039
▁dish	-10.3039
be	-10.3041
▁conducted	-10.3043
▁reasonable	-10.3047
▁crew	-10.305
▁workshop	-10.3053
▁sister	-10.3053
▁inches	-10.3059
▁beer	-10.3061
▁Instead	-10.3061
▁CA	-10.3063
New	-10.307
▁wild	-10.307
▁Russian	-10.3079
▁monitoring	-10.3085
▁dates	-10.309
▁stars	-10.3092
▁forces	-10.3103
▁golf	-10.3103
▁Mexico	-10.3104
▁Brown	-10.3112
▁Canadian	-10.3112
▁shops	-10.3113
▁f	-10.3114
▁television	-10.3118
▁fishing	-10.3124
▁institutions	-10.3125
▁Angeles	-10.3125
▁agents	-10.3126
▁relatively	-10.3129
you	-10.313
Another	-10.3132
▁reputation	-10.3132
▁gorgeous	-10.3132
▁sustainable	-10.3139
▁casino	-10.3139
▁soil	-10.315
▁camp	-10.315
▁removal	-10.3153
▁Royal	-10.3153
▁protein	-10.3156
▁expand	-10.3157
▁identified	-10.3164
▁Plan	-10.3164
▁Set	-10.3168
▁guidance	-10.3176
▁Children	-10.3181
▁=	-10.3186
▁picked	-10.3193
▁Sea	-10.3193
▁engage	-10.3194
▁Its	-10.3196
▁mouth	-10.3196
▁height	-10.3196
▁chat	-10.3199
▁circumstances	-10.32
▁interface	-10.3202
▁Robert	-10.3202
▁Instagram	-10.3202
▁Peter	-10.3207
▁architecture	-10.3208
os	-10.3218
▁bags	-10.3224
▁Congress	-10.3234
▁70	-10.3234
▁ages	-10.3243
▁technique	-10.3244
▁strategic	-10.3246
▁mom	-10.3252
▁happening	-10.3252
▁returns	-10.3259
▁organized	-10.3261
▁ends	-10.3262
▁Journal	-10.3269
▁la	-10.3281
▁ran	-10.3281
▁ongoing	-10.3282
▁Light	-10.3283
▁aspect	-10.3294
ling	-10.33
▁45	-10.3302
quality	-10.3303
▁keeps	-10.3303
▁Full	-10.3306
▁bottle	-10.331
▁El	-10.3319
▁charged	-10.3322
▁noticed	-10.3325
▁joy	-10.3326
▁yesterday	-10.3329
▁stopped	-10.3333
▁managing	-10.3342
▁implementation	-10.3344
▁d	-10.3345
▁grew	-10.3348
▁Rock	-10.3353
▁fly	-10.3354
0	-10.3359
▁entirely	-10.3362
▁festival	-10.3363
▁Town	-10.3379
▁arts	-10.338
▁Those	-10.3383
▁musical	-10.3386
▁identity	-10.3387
▁worse	-10.3389
▁noted	-10.3392
▁collected	-10.3399
▁neighborhood	-10.3405
▁port	-10.3406
▁capture	-10.3408
▁agreed	-10.342
▁positions	-10.342
▁regulations	-10.3421
▁capable	-10.3425
▁element	-10.3428
▁motor	-10.3435
▁Game	-10.3441
▁stated	-10.3442
▁Cup	-10.3451
▁Paris	-10.3453
▁printed	-10.3456
ry	-10.3461
▁NOT	-10.3474
▁turning	-10.3483
▁alcohol	-10.3484
Let	-10.3492
▁Code	-10.3494
▁mixture	-10.3494
▁tested	-10.3495
▁fell	-10.3499
Most	-10.3501
▁graduate	-10.3528
▁n	-10.3533
▁Ideas	-10.3539
▁description	-10.354
▁phase	-10.3541
▁attached	-10.3543
▁Maybe	-10.3547
▁31	-10.355
▁boys	-10.3552
ch	-10.3555
▁mainly	-10.3562
▁defense	-10.3563
▁scientific	-10.3563
▁personally	-10.357
▁Keep	-10.3575
▁specialist	-10.3581
▁solve	-10.359
▁candidate	-10.3595
▁objects	-10.3599
▁input	-10.3604
▁deck	-10.3606
▁risks	-10.3613
▁compare	-10.3615
▁honest	-10.3617
▁exist	-10.3619
▁whenever	-10.3622
▁Thomas	-10.3626
▁wire	-10.3626
▁vary	-10.3628
▁membership	-10.3629
▁injuries	-10.3633
▁Spring	-10.3638
▁normally	-10.3645
▁generate	-10.3647
▁29	-10.3656
Get	-10.3672
▁performing	-10.3674
20	-10.3679
▁meals	-10.3682
▁banks	-10.3683
▁industries	-10.3685
▁inch	-10.3686
▁clothing	-10.3689
ta	-10.3689
▁boost	-10.3692
▁contribute	-10.3695
▁Jan	-10.3697
▁Small	-10.3698
ma	-10.3699
▁Santa	-10.37
▁Tom	-10.3709
▁extension	-10.3718
▁gear	-10.372
▁Buy	-10.372
▁unable	-10.373
▁platforms	-10.3731
▁ultimate	-10.3733
▁reporting	-10.3743
▁secret	-10.3747
▁crucial	-10.3749
▁creates	-10.3749
▁citizens	-10.3751
▁drugs	-10.3754
▁preparation	-10.3756
▁motion	-10.3757
▁bonus	-10.3766
▁attended	-10.377
▁investigation	-10.3773
▁Control	-10.3777
▁historic	-10.3782
Also	-10.3783
▁dynamic	-10.3797
▁Live	-10.38
▁Fire	-10.3804
▁300	-10.381
▁filed	-10.3818
▁wheel	-10.3821
friendly	-10.3822
▁Before	-10.3826
▁et	-10.3828
▁episode	-10.3833
▁Spanish	-10.3833
▁powder	-10.3836
▁Russia	-10.3837
▁Un	-10.3848
ian	-10.3849
▁virtual	-10.385
▁revealed	-10.3854
▁films	-10.3856
▁ancient	-10.3861
▁mining	-10.3862
▁craft	-10.3863
▁attractive	-10.3867
▁Using	-10.3871
▁founded	-10.3878
▁Therefore	-10.3884
▁originally	-10.3885
▁invited	-10.3887
ca	-10.3888
▁IP	-10.3892
▁theory	-10.3893
▁tech	-10.3911
▁expenses	-10.3911
▁tiny	-10.3914
▁relief	-10.3921
▁filter	-10.3928
▁log	-10.3928
▁pricing	-10.3936
▁Library	-10.3942
▁Carolina	-10.3944
▁magazine	-10.3945
▁proven	-10.3954
▁committee	-10.3955
▁urban	-10.3956
▁reflect	-10.396
▁Chris	-10.3964
▁Sometimes	-10.3965
▁equal	-10.3968
▁entered	-10.3968
▁networks	-10.3972
▁dealing	-10.3977
▁default	-10.3992
▁heating	-10.3993
▁offices	-10.3993
▁ensuring	-10.3994
▁consistent	-10.3997
▁satisfaction	-10.4002
First	-10.4005
▁availability	-10.4005
Re	-10.4005
▁ceiling	-10.4006
▁developers	-10.4007
▁weekly	-10.4009
▁achieved	-10.4009
5.	-10.4011
▁obvious	-10.4015
▁booking	-10.4018
▁Another	-10.4022
▁Mobile	-10.4028
related	-10.4032
ies	-10.4033
Click	-10.4036
▁officer	-10.4038
▁Little	-10.4039
▁immediate	-10.4049
▁Digital	-10.4053
▁SEO	-10.4065
▁finance	-10.407
▁recipes	-10.4075
▁recognize	-10.4081
▁hotels	-10.4085
▁versions	-10.4088
▁Special	-10.409
▁fairly	-10.4097
▁pink	-10.4098
▁treatments	-10.4099
▁visited	-10.4107
▁trail	-10.4108
▁linked	-10.4108
▁viewed	-10.411
▁routine	-10.4121
▁tables	-10.4121
▁Auto	-10.4121
▁bread	-10.4122
▁enables	-10.4125
▁Insurance	-10.4125
▁listening	-10.4125
▁smile	-10.413
▁fellow	-10.4135
▁dangerous	-10.4139
da	-10.4141
▁Hospital	-10.4144
▁desk	-10.4145
▁Where	-10.4148
▁county	-10.4151
▁eligible	-10.4155
▁Virginia	-10.4158
▁forced	-10.4164
▁CD	-10.4166
▁label	-10.4169
▁constant	-10.417
▁firms	-10.417
▁carbon	-10.417
▁Ireland	-10.417
▁Americans	-10.4171
▁desired	-10.4177
▁mortgage	-10.4183
-1	-10.4194
▁defined	-10.4197
▁awarded	-10.4198
back	-10.4201
▁hidden	-10.4206
▁consultation	-10.4209
▁depth	-10.4209
Well	-10.4214
ment	-10.4216
▁formed	-10.4224
▁Martin	-10.4233
▁confident	-10.4234
▁portfolio	-10.4236
▁throw	-10.4238
▁Head	-10.4244
▁conduct	-10.4246
▁Store	-10.4252
▁west	-10.4255
▁losing	-10.426
▁luck	-10.4262
▁drawing	-10.4276
▁Police	-10.4282
▁portion	-10.4283
▁tells	-10.4285
▁exhibition	-10.4294
▁shooting	-10.4297
▁2008	-10.43
▁sand	-10.4305
▁papers	-10.4305
level	-10.4311
▁impossible	-10.4323
▁implement	-10.4323
▁Middle	-10.433
▁Italy	-10.4334
wood	-10.4335
see	-10.4339
▁communicate	-10.4343
▁represents	-10.4345
▁alongside	-10.4362
▁telling	-10.4362
▁vast	-10.4365
▁bridge	-10.4366
▁Systems	-10.4368
▁rating	-10.4372
▁awards	-10.4374
▁Work	-10.4383
▁Mike	-10.4389
▁exposure	-10.4393
▁codes	-10.4403
▁blend	-10.4403
▁Pre	-10.4404
▁seriously	-10.4406
▁criminal	-10.4409
▁seats	-10.4414
▁2009	-10.4419
▁Play	-10.442
▁wooden	-10.4426
▁Times	-10.4426
well	-10.4436
▁boxes	-10.4437
▁cabinet	-10.4443
▁spiritual	-10.4447
▁broad	-10.4448
▁crowd	-10.4449
▁folks	-10.4449
▁recording	-10.4455
▁Place	-10.4458
▁purchasing	-10.4459
▁figures	-10.446
▁Guys	-10.4469
▁lucky	-10.447
▁printing	-10.4475
▁explained	-10.4477
▁Shop	-10.4483
▁swimming	-10.4488
▁letters	-10.4494
▁About	-10.4495
▁capabilities	-10.4497
▁speech	-10.4509
▁Marketing	-10.4516
▁marriage	-10.4518
▁increases	-10.452
▁exceptional	-10.452
▁widely	-10.4527
Have	-10.4527
▁establish	-10.4532
▁upgrade	-10.4533
▁buyers	-10.4535
▁loves	-10.454
▁component	-10.4543
▁superior	-10.455
▁appeal	-10.455
▁Learn	-10.4551
▁Boston	-10.4552
▁handling	-10.4552
▁violence	-10.4567
▁shift	-10.4573
▁View	-10.4574
▁enjoying	-10.4578
▁enterprise	-10.4595
▁neck	-10.4595
▁Review	-10.4597
▁resulting	-10.4604
▁taxes	-10.4604
▁William	-10.4606
▁tomorrow	-10.4607
▁horse	-10.4607
▁consists	-10.4611
▁PDF	-10.4613
▁Lee	-10.4618
▁magic	-10.462
▁Back	-10.4621
▁tank	-10.4628
▁Jersey	-10.4633
▁ordered	-10.4639
▁eggs	-10.4642
▁possibility	-10.4643
▁carpet	-10.4644
▁indeed	-10.4647
field	-10.4649
▁rice	-10.4653
▁Training	-10.4655
▁prove	-10.4661
▁Engineering	-10.4662
▁adds	-10.4663
▁memories	-10.4668
▁soul	-10.467
▁command	-10.4671
▁raw	-10.4672
▁Le	-10.4676
▁communications	-10.4676
▁liked	-10.4677
▁decade	-10.4679
▁resistance	-10.4679
▁suggested	-10.4689
▁2016.	-10.4691
▁Coast	-10.4693
▁Wood	-10.4695
▁minor	-10.4696
▁religious	-10.47
▁invest	-10.4707
▁Area	-10.471
▁32	-10.471
▁scheme	-10.4711
▁profit	-10.4713
he	-10.4714
▁categories	-10.4714
▁FREE	-10.4719
▁Garden	-10.4722
▁Enjoy	-10.4723
▁submitted	-10.4724
▁Southern	-10.4725
▁Next	-10.4727
▁thick	-10.4727
▁password	-10.4731
▁tagged	-10.4737
▁express	-10.4738
▁km	-10.4739
▁chief	-10.4743
▁scored	-10.4744
▁flavor	-10.4747
▁permanent	-10.4749
▁muscle	-10.4749
▁managers	-10.475
age	-10.4754
▁compliance	-10.4755
▁replaced	-10.4756
▁Obama	-10.4766
▁YouTube	-10.4768
▁crisis	-10.4771
▁venue	-10.4772
▁Federal	-10.4775
▁healing	-10.4778
▁Airport	-10.478
▁valid	-10.4783
▁elegant	-10.479
▁jump	-10.4793
▁civil	-10.4794
▁confirmed	-10.4796
▁noise	-10.4799
▁Price	-10.4799
▁whilst	-10.4803
▁none	-10.4803
▁dishes	-10.4806
▁Students	-10.481
▁Kitchen	-10.4811
▁channels	-10.482
▁depends	-10.482
▁discussed	-10.4824
▁ID	-10.4826
▁labor	-10.4829
▁2000	-10.4829
▁promise	-10.4833
▁surprised	-10.4836
▁ultimately	-10.484
▁priority	-10.4852
▁incredibly	-10.4862
▁array	-10.4864
▁chose	-10.4873
▁reducing	-10.4873
▁household	-10.4876
▁duty	-10.488
j	-10.488
▁Games	-10.4884
▁chemical	-10.4884
▁joining	-10.4888
▁zone	-10.4895
▁Zealand	-10.4901
▁somewhere	-10.4902
▁bodies	-10.4907
▁hoping	-10.4914
side	-10.4918
▁involves	-10.4921
▁realized	-10.4922
▁holidays	-10.4925
▁chairs	-10.4928
ation	-10.4928
▁Does	-10.4932
▁Scott	-10.4935
▁Class	-10.494
▁officers	-10.4941
▁streets	-10.4941
▁sending	-10.4943
Be	-10.4955
▁vintage	-10.4957
▁tip	-10.4962
▁crime	-10.4964
▁Through	-10.4971
▁colours	-10.4971
During	-10.4972
▁vegetables	-10.4977
Although	-10.4979
▁transition	-10.4982
▁displayed	-10.4983
▁brief	-10.4986
▁producing	-10.4995
▁stored	-10.4997
▁Mar	-10.5
12	-10.5
Today	-10.5004
▁Michigan	-10.5006
▁Bible	-10.5013
▁hosted	-10.5014
▁combine	-10.502
Last	-10.5021
▁pride	-10.5029
▁dreams	-10.503
▁arms	-10.5034
▁deposit	-10.5034
▁attacks	-10.5045
▁root	-10.5046
▁saved	-10.5047
▁usage	-10.505
▁finest	-10.5051
▁passing	-10.5058
▁approval	-10.5059
▁suggestions	-10.5061
?”	-10.5063
▁percentage	-10.5063
Hi	-10.507
▁requests	-10.5072
▁guidelines	-10.5073
▁describe	-10.5073
▁estimated	-10.5075
▁crazy	-10.5075
▁younger	-10.508
▁recommendations	-10.5086
▁aside	-10.5086
▁increasingly	-10.5094
▁packages	-10.5096
▁licensed	-10.5097
men	-10.5098
▁tradition	-10.5101
▁matches	-10.5102
▁Site	-10.5118
▁occasion	-10.5118
▁egg	-10.512
▁Jack	-10.5124
▁slowly	-10.5125
▁Part	-10.5125
▁pace	-10.5126
▁Trust	-10.5127
▁honor	-10.5129
▁graphics	-10.5131
▁inner	-10.5132
▁connections	-10.5133
▁Financial	-10.5135
▁listing	-10.5137
▁Note	-10.5151
▁authority	-10.5152
▁primarily	-10.5153
▁writers	-10.516
▁fail	-10.5162
▁engaged	-10.5165
▁supposed	-10.5167
▁cookies	-10.5181
▁border	-10.5182
▁programming	-10.5184
▁$	-10.5197
her	-10.5204
▁pleasure	-10.5205
▁Executive	-10.5209
▁Out	-10.5216
▁classroom	-10.522
▁roles	-10.5221
▁victory	-10.5224
▁Chief	-10.523
▁Building	-10.5231
▁calendar	-10.5232
▁chart	-10.5232
▁Human	-10.5235
▁LED	-10.5239
▁yard	-10.5239
▁Guide	-10.5244
Next	-10.5246
▁reader	-10.5252
▁App	-10.5254
▁volunteers	-10.526
▁coast	-10.5261
▁setup	-10.5262
▁Video	-10.5269
▁factory	-10.5271
▁obtained	-10.5274
▁Colorado	-10.5284
▁behalf	-10.529
▁forever	-10.5297
▁maintaining	-10.5299
▁mirror	-10.5299
▁relax	-10.53
▁covering	-10.5305
▁Having	-10.5309
▁Very	-10.5314
▁Welcome	-10.5315
▁chapter	-10.532
▁Ohio	-10.5321
▁hole	-10.5323
▁skilled	-10.5323
▁Northern	-10.5325
▁presents	-10.5327
▁Ben	-10.5334
▁editor	-10.5339
▁lock	-10.534
▁accommodation	-10.5344
um	-10.5349
▁Sports	-10.5352
▁introduction	-10.5353
▁DC	-10.5354
▁Watch	-10.5355
▁continuing	-10.5359
that	-10.5364
▁arm	-10.5369
▁Card	-10.5373
▁suffering	-10.5375
▁yoga	-10.5376
▁struggle	-10.5376
▁male	-10.5378
▁bars	-10.5385
▁kid	-10.5388
▁formal	-10.5389
▁grant	-10.5393
▁tile	-10.54
▁consideration	-10.5404
▁severe	-10.541
▁interactive	-10.5417
=	-10.5419
▁faculty	-10.5424
▁Francisco	-10.5426
▁Under	-10.5436
▁commonly	-10.5436
▁principles	-10.5439
▁millions	-10.5445
▁History	-10.5451
▁justice	-10.5454
▁naturally	-10.5457
▁suppliers	-10.546
▁rely	-10.5464
▁authorities	-10.5472
▁worst	-10.5473
▁entrance	-10.5475
▁Living	-10.5478
▁potentially	-10.5484
▁legs	-10.5485
▁reduction	-10.5487
▁herself	-10.5492
▁Table	-10.5494
▁flower	-10.5496
▁acid	-10.5497
Then	-10.5503
per	-10.5503
▁applying	-10.5513
▁lawyer	-10.5513
▁Pacific	-10.5518
▁shouldn	-10.552
▁integration	-10.5532
▁east	-10.554
▁museum	-10.554
);	-10.5542
use	-10.5547
▁beneficial	-10.5551
▁pure	-10.5553
Even	-10.5554
▁funny	-10.5555
▁micro	-10.5558
▁Which	-10.5558
▁regardless	-10.556
▁electricity	-10.5565
▁Men	-10.557
▁recognition	-10.5575
▁framework	-10.5583
▁layout	-10.5585
▁repairs	-10.559
▁conflict	-10.5596
▁baking	-10.5603
▁juice	-10.5604
▁split	-10.5604
Dr	-10.561
▁fighting	-10.5613
▁Support	-10.5621
▁checking	-10.5622
▁blocks	-10.5629
▁drinks	-10.5632
▁gun	-10.5642
More	-10.5644
▁sensitive	-10.5652
▁Search	-10.5655
▁decor	-10.5656
▁visible	-10.5657
▁certificate	-10.566
ized	-10.5668
▁causing	-10.5668
▁careful	-10.5669
▁referred	-10.5669
▁filling	-10.567
▁traveling	-10.5678
▁newly	-10.5679
▁requirement	-10.5685
▁designers	-10.5688
?"	-10.569
▁authors	-10.5691
Of	-10.5696
ally	-10.5701
▁Ford	-10.5701
▁birds	-10.5705
▁staying	-10.5707
▁panels	-10.5708
my	-10.5711
▁Mountain	-10.5711
▁lift	-10.5714
▁believed	-10.5716
▁laptop	-10.572
▁errors	-10.5725
▁tracks	-10.5726
▁proof	-10.573
▁consumption	-10.5731
▁drinking	-10.5732
▁functional	-10.5733
▁tight	-10.5743
Each	-10.5743
▁guitar	-10.5745
▁stainless	-10.5745
▁structures	-10.5745
▁encouraged	-10.5746
▁utility	-10.5755
▁delivering	-10.5758
▁forum	-10.576
▁Johnson	-10.5761
▁driven	-10.5763
▁resort	-10.5767
▁shoot	-10.5772
▁Young	-10.5778
▁l	-10.578
▁Summer	-10.5788
▁stuck	-10.5793
▁extreme	-10.5806
▁Machine	-10.5814
▁Professional	-10.5814
▁hopes	-10.5816
▁organisation	-10.5819
▁Look	-10.5822
▁row	-10.5826
▁lesson	-10.5826
▁tracking	-10.5828
▁signal	-10.583
▁expansion	-10.5834
▁flexibility	-10.5834
▁convenience	-10.5844
▁comparison	-10.5849
▁USB	-10.5849
▁Jones	-10.5856
▁centers	-10.5857
▁dust	-10.5864
ish	-10.5864
Check	-10.5871
▁certification	-10.5871
▁2015.	-10.5871
▁initiative	-10.5873
▁everywhere	-10.5874
▁warranty	-10.5876
▁photographs	-10.5876
▁abuse	-10.5879
▁https	-10.5881
▁threat	-10.5884
▁resume	-10.5884
▁league	-10.5892
▁wealth	-10.5893
▁pump	-10.5896
▁mill	-10.5896
▁stream	-10.5901
▁Page	-10.5903
▁wireless	-10.5905
▁forest	-10.5907
▁Local	-10.5911
▁dropped	-10.5912
▁downtown	-10.5913
▁pot	-10.5917
▁feelings	-10.5922
▁doctors	-10.5926
▁preferred	-10.5928
ro	-10.5931
▁Joe	-10.5931
ization	-10.5932
▁ads	-10.5932
▁spoke	-10.5934
▁AM	-10.5934
▁differences	-10.5944
▁cap	-10.5949
▁personality	-10.5954
▁guaranteed	-10.5959
▁Sale	-10.5961
▁Oil	-10.5962
cm	-10.5964
▁functionality	-10.5969
▁Quality	-10.5976
▁Richard	-10.5979
▁1.	-10.5982
▁transaction	-10.5984
▁thin	-10.5992
▁shots	-10.5993
▁fits	-10.5994
▁moves	-10.5999
art	-10.6001
▁anxiety	-10.6008
▁posting	-10.6011
▁phones	-10.6012
▁stable	-10.6014
▁planet	-10.6018
▁trips	-10.6019
▁Fund	-10.602
▁amounts	-10.6022
▁lifetime	-10.6029
Great	-10.6029
▁OR	-10.603
▁compensation	-10.6031
▁retirement	-10.6033
▁spots	-10.6034
▁liquid	-10.6036
▁basically	-10.6044
▁aims	-10.6057
▁controlled	-10.6058
Make	-10.6063
▁concepts	-10.6065
▁48	-10.6065
▁thread	-10.6068
▁clicking	-10.6072
▁leg	-10.6079
▁chances	-10.6082
▁tall	-10.609
▁visitor	-10.6091
▁flooring	-10.6092
▁rural	-10.6093
ka	-10.6098
▁talks	-10.6108
▁LLC	-10.6109
▁marks	-10.6109
▁automatic	-10.6117
▁2018,	-10.6126
▁tag	-10.6131
▁intelligence	-10.6142
▁NY	-10.6145
▁generated	-10.6146
▁directed	-10.6147
▁contrast	-10.6149
▁preparing	-10.615
▁rose	-10.6151
▁Steve	-10.6153
▁seeds	-10.6159
ING	-10.6164
▁kick	-10.6166
‘	-10.6168
ner	-10.618
▁damaged	-10.6184
▁definition	-10.6187
▁YOU	-10.6189
▁g	-10.6191
▁Photo	-10.6194
▁outcomes	-10.6201
▁Start	-10.6203
▁brilliant	-10.6214
▁celebration	-10.6214
▁insight	-10.6214
▁semi	-10.6217
▁employer	-10.6218
▁orange	-10.6221
▁durable	-10.6229
▁150	-10.6241
▁correctly	-10.6244
▁literally	-10.6249
▁lake	-10.6256
▁focuses	-10.6256
▁Professor	-10.6264
▁Singapore	-10.6267
▁empty	-10.6267
▁exploring	-10.6269
▁closing	-10.6274
▁till	-10.6275
▁wash	-10.6277
▁expression	-10.6281
▁workshops	-10.6281
▁gaming	-10.6288
▁volunteer	-10.6289
▁refer	-10.6289
▁Word	-10.629
▁statements	-10.629
▁judge	-10.6291
▁patio	-10.6292
▁ceremony	-10.63
▁concerning	-10.6302
▁Queen	-10.6308
▁aircraft	-10.6314
▁proposal	-10.6324
▁opposite	-10.6334
▁Awards	-10.6335
▁Try	-10.6336
class	-10.634
▁walked	-10.634
▁believes	-10.6354
▁regions	-10.6355
▁2007	-10.6355
▁Right	-10.6357
▁Land	-10.6357
Oh	-10.636
▁hurt	-10.6364
▁sky	-10.6371
▁smartphone	-10.6373
▁facts	-10.6376
#	-10.6377
▁Drive	-10.6383
ting	-10.6383
▁Week	-10.6386
▁somewhat	-10.6391
▁Modern	-10.6391
▁Tour	-10.6392
over	-10.6399
▁kill	-10.6402
▁engaging	-10.6404
▁outcome	-10.6408
▁improvements	-10.6412
▁complicated	-10.6417
▁lens	-10.642
▁packed	-10.642
▁legislation	-10.644
including	-10.6447
▁ex	-10.6447
▁Spain	-10.6449
▁Night	-10.645
▁Software	-10.6455
▁Medicine	-10.6458
▁emails	-10.6459
▁satisfied	-10.646
▁samples	-10.6462
▁Division	-10.6463
!"	-10.6466
▁Point	-10.6468
▁Sam	-10.6486
!)	-10.6486
▁creativity	-10.6489
▁Stone	-10.6491
▁speaker	-10.6498
▁debut	-10.6503
▁container	-10.6503
▁bedrooms	-10.6504
▁ocean	-10.6505
▁lets	-10.6511
Note	-10.6512
▁upload	-10.6513
▁Asian	-10.6515
▁Avenue	-10.652
▁evaluation	-10.6523
▁completion	-10.6525
▁$1	-10.6528
▁participation	-10.6528
▁giant	-10.653
▁applicable	-10.6536
▁tab	-10.6538
▁asset	-10.6542
▁anyway	-10.6548
▁studying	-10.6552
▁permission	-10.6553
▁hundred	-10.6557
ier	-10.6558
▁involving	-10.6566
▁era	-10.6567
▁division	-10.6568
▁flights	-10.6569
li	-10.6573
▁carrying	-10.6574
▁afford	-10.6575
▁quotes	-10.6579
▁limits	-10.6585
▁Georgia	-10.6586
▁bills	-10.6594
▁residence	-10.6599
▁PA	-10.6604
▁incident	-10.6609
▁cotton	-10.6616
▁suggests	-10.6616
▁2017,	-10.6622
▁loving	-10.6627
▁heads	-10.6628
▁follows	-10.663
down	-10.6631
▁stronger	-10.6631
▁prize	-10.6636
▁400	-10.6636
▁texture	-10.6639
▁specialists	-10.6643
▁focusing	-10.6645
▁acts	-10.6645
▁Gallery	-10.6651
▁Hope	-10.6654
▁introduce	-10.6664
▁humans	-10.6665
▁Kingdom	-10.6672
▁association	-10.6672
▁Happy	-10.6673
▁maintained	-10.6673
▁HP	-10.6673
[	-10.6673
▁pocket	-10.6676
ni	-10.6678
▁tone	-10.6679
led	-10.668
inch	-10.6681
▁attending	-10.6686
▁Space	-10.6693
made	-10.67
▁demands	-10.6702
▁meets	-10.6702
▁zero	-10.6705
▁invite	-10.6706
▁Smart	-10.6707
▁riding	-10.671
▁arrival	-10.671
▁indoor	-10.6713
▁pounds	-10.6721
▁gained	-10.6724
▁checked	-10.6728
▁faces	-10.673
▁Samsung	-10.6734
▁Three	-10.6735
style	-10.6737
▁greatly	-10.6738
▁stretch	-10.6738
▁controls	-10.6741
▁packaging	-10.6742
▁objective	-10.6747
▁organisations	-10.6752
▁extend	-10.6753
▁liability	-10.6757
▁graphic	-10.6758
▁colleagues	-10.6759
▁highlight	-10.6764
▁Army	-10.6771
ED	-10.6772
▁king	-10.6776
▁Dan	-10.6777
▁Line	-10.6787
▁Studio	-10.6791
▁wiring	-10.6792
▁explains	-10.6797
▁transactions	-10.68
▁MP	-10.6803
▁hasn	-10.6804
▁concert	-10.6805
▁Disney	-10.6806
▁promotion	-10.681
▁lowest	-10.681
▁arrange	-10.6815
▁tournament	-10.6818
▁Steel	-10.682
▁Charles	-10.6822
▁speakers	-10.6825
▁extent	-10.6826
▁publication	-10.6828
▁Country	-10.6832
▁floors	-10.6841
▁unexpected	-10.6842
▁instant	-10.6844
▁Did	-10.6845
▁Travel	-10.6846
Use	-10.6849
▁inventory	-10.6852
▁approaches	-10.6857
▁Village	-10.6858
▁grand	-10.6861
▁stylish	-10.6864
▁debate	-10.6864
▁Image	-10.6867
▁pulled	-10.6871
▁Additionally	-10.6877
site	-10.6884
▁safely	-10.6888
▁Rights	-10.6889
▁passionate	-10.689
ter	-10.6892
▁trusted	-10.6897
▁hate	-10.6897
▁sight	-10.6899
▁scientists	-10.6899
▁addresses	-10.69
▁Station	-10.6902
▁flying	-10.6909
▁mile	-10.6916
new	-10.6922
▁drawn	-10.6928
▁diseases	-10.6928
▁deeper	-10.6929
ine	-10.694
em	-10.6949
▁politics	-10.695
▁roads	-10.6951
▁Square	-10.6952
hour	-10.6953
▁iPad	-10.6955
▁scores	-10.6956
▁sat	-10.6959
▁exposed	-10.6959
▁sections	-10.6966
▁2014.	-10.6967
▁Cross	-10.6969
▁Unfortunately	-10.6972
ur	-10.6973
▁contractors	-10.6974
▁painted	-10.6974
▁stages	-10.6975
▁bird	-10.6976
▁suite	-10.6979
▁string	-10.6981
Take	-10.6981
▁necessarily	-10.6985
▁Safety	-10.6988
▁gap	-10.6994
▁acting	-10.7
▁icon	-10.7003
▁di	-10.7006
▁entering	-10.7013
▁rising	-10.7023
▁talented	-10.7024
▁illness	-10.7027
▁signature	-10.7029
▁index	-10.7034
▁Williams	-10.7036
▁jewelry	-10.7036
▁brush	-10.7036
▁engines	-10.7037
▁hanging	-10.7038
▁Prime	-10.7038
▁Solutions	-10.7042
▁faced	-10.7042
▁storm	-10.7045
▁exterior	-10.705
▁massage	-10.7051
▁harder	-10.7057
▁Silver	-10.7062
▁Come	-10.7063
▁supplier	-10.7076
▁lists	-10.7089
▁injured	-10.7099
how	-10.7105
▁coloring	-10.7106
▁Senior	-10.7106
▁participating	-10.7108
▁marked	-10.7113
▁Van	-10.7114
▁twenty	-10.7115
▁criteria	-10.7118
▁fabulous	-10.712
▁DVD	-10.7121
▁founder	-10.7122
▁heading	-10.7125
long	-10.7126
▁falling	-10.713
▁Being	-10.7133
▁Order	-10.7136
▁OS	-10.7142
▁ad	-10.7144
▁Agency	-10.7144
▁accounting	-10.7147
15	-10.7149
▁Report	-10.7155
▁telephone	-10.716
▁Port	-10.716
▁grab	-10.7165
▁responses	-10.7166
▁Toronto	-10.7168
▁lies	-10.7171
▁dual	-10.7171
▁accommodate	-10.7171
▁productivity	-10.7173
▁Creek	-10.7173
▁temporary	-10.7176
▁insights	-10.7179
▁bear	-10.7184
Before	-10.7187
ri	-10.7188
▁operated	-10.7193
▁yards	-10.72
▁alive	-10.72
▁breaking	-10.7201
▁requested	-10.7211
▁Natural	-10.7219
▁environments	-10.7225
▁contest	-10.7226
▁Fort	-10.7229
▁anymore	-10.723
▁viewing	-10.7231
▁stations	-10.7231
▁utilize	-10.7231
▁rubber	-10.7232
Over	-10.7234
▁nights	-10.7236
▁headed	-10.7237
▁hiring	-10.7249
▁rid	-10.7249
▁indicate	-10.7252
▁FOR	-10.7252
▁Way	-10.7256
▁mood	-10.7259
▁council	-10.7259
▁Rose	-10.7262
▁afraid	-10.7267
▁desktop	-10.7281
ty	-10.7285
▁Limited	-10.7286
▁Repair	-10.7287
Add	-10.7288
▁assume	-10.7291
30	-10.7294
▁personnel	-10.7296
▁investments	-10.7301
▁gym	-10.7301
▁Mill	-10.732
▁coat	-10.7322
▁Second	-10.7322
▁largely	-10.7324
▁returning	-10.7329
▁Key	-10.733
▁coaching	-10.733
▁dollar	-10.7331
▁inspection	-10.7332
▁estimate	-10.7334
▁Studies	-10.7335
▁venture	-10.7338
▁Yet	-10.7341
▁computers	-10.7342
▁Britain	-10.7355
▁hang	-10.7356
▁strongly	-10.736
▁contribution	-10.7367
▁workplace	-10.7369
Every	-10.737
▁36	-10.7371
▁gender	-10.7374
▁talked	-10.7378
known	-10.738
▁Spirit	-10.7397
▁representative	-10.7398
▁hits	-10.7398
Where	-10.7399
▁holes	-10.7411
▁laser	-10.7415
6.	-10.7415
▁employers	-10.7424
▁golden	-10.7424
▁networking	-10.7426
▁abroad	-10.7426
▁attract	-10.7429
▁farmers	-10.7431
▁module	-10.7432
▁Made	-10.7433
▁Vegas	-10.7433
▁beds	-10.7435
▁Corporation	-10.7436
▁diversity	-10.7438
▁objectives	-10.7439
▁wondering	-10.7441
▁promoting	-10.7442
▁portable	-10.7444
▁relations	-10.7452
11	-10.746
▁adjust	-10.7461
▁importantly	-10.7462
▁Should	-10.7464
▁secondary	-10.7465
▁obviously	-10.7466
▁developer	-10.7467
▁subjects	-10.7468
▁bunch	-10.7469
▁diagram	-10.7474
▁advantages	-10.7478
▁temperatures	-10.7479
▁sofa	-10.7479
▁servers	-10.748
▁grass	-10.7486
more	-10.7486
▁reaching	-10.7487
au	-10.7488
▁Rs	-10.7497
▁anniversary	-10.7497
▁illegal	-10.7501
▁Oh	-10.7506
▁Such	-10.7508
▁prayer	-10.751
▁globe	-10.7511
▁Jewish	-10.7515
▁buyer	-10.7516
▁documentation	-10.7517
Whether	-10.7517
▁Holy	-10.7518
▁Private	-10.7519
▁flour	-10.7524
▁Looking	-10.7524
▁Administration	-10.7526
▁visits	-10.7527
▁reserved	-10.7529
▁assigned	-10.7532
▁contained	-10.7533
▁wanting	-10.7536
▁charity	-10.7536
▁occurs	-10.7538
▁seed	-10.7539
See	-10.754
▁van	-10.7541
▁scope	-10.7544
▁ensures	-10.7544
▁consistently	-10.7546
▁tooth	-10.7546
▁Estate	-10.7551
▁statistics	-10.7552
▁literature	-10.7553
▁sufficient	-10.7553
▁2016,	-10.7553
▁ranging	-10.7554
▁initiatives	-10.7554
▁sick	-10.7554
▁Wi	-10.7555
▁rapidly	-10.7564
▁random	-10.7565
▁equally	-10.7567
▁excess	-10.7578
▁Eastern	-10.758
▁Capital	-10.7581
▁accuracy	-10.7581
▁layers	-10.7584
▁sink	-10.7586
▁o	-10.7587
io	-10.7588
):	-10.759
▁announce	-10.7591
▁Thus	-10.7594
▁wet	-10.7596
▁script	-10.7597
▁themes	-10.7599
▁pepper	-10.7606
▁persons	-10.761
▁ending	-10.7612
▁implemented	-10.7616
▁childhood	-10.7617
50	-10.7618
▁Collection	-10.762
▁branch	-10.762
▁Sydney	-10.7621
▁racing	-10.7621
▁Test	-10.7623
▁absolute	-10.7624
▁Main	-10.7626
▁Though	-10.7626
▁Hi	-10.763
▁cameras	-10.7634
▁Forest	-10.7635
▁demonstrate	-10.7638
▁Jim	-10.7643
▁characteristics	-10.7651
▁dad	-10.7653
▁Sales	-10.7658
GB	-10.766
▁configuration	-10.7661
▁highlights	-10.7662
▁pursue	-10.7664
▁designing	-10.7668
se	-10.7668
▁Justice	-10.7668
▁define	-10.7672
▁edit	-10.7673
making	-10.768
▁findings	-10.7681
▁expressed	-10.7685
▁initially	-10.7687
▁discounts	-10.769
▁Learning	-10.769
▁Radio	-10.7693
ft	-10.7693
▁genuine	-10.7695
▁Cloud	-10.7696
▁inform	-10.7699
▁boards	-10.7701
▁confirm	-10.7709
▁tape	-10.7711
▁languages	-10.7712
▁inspire	-10.7713
▁Irish	-10.7715
▁coupon	-10.7719
▁appointed	-10.772
▁Crusher	-10.7724
▁Remember	-10.7729
▁breath	-10.7747
▁lay	-10.7752
▁muscles	-10.7756
▁smoke	-10.7759
Mr	-10.776
▁reveal	-10.7761
▁wallpaper	-10.7762
Fi	-10.7765
▁laid	-10.7767
▁Republic	-10.7768
▁bone	-10.7768
▁clock	-10.7771
▁fence	-10.7771
▁compatible	-10.7772
и	-10.7772
▁unknown	-10.7773
▁transmission	-10.7774
▁interaction	-10.7775
Find	-10.7778
▁sad	-10.7779
▁spray	-10.7785
▁containing	-10.7788
▁hall	-10.7788
▁suffer	-10.7789
▁minimal	-10.779
▁escape	-10.7796
▁campaigns	-10.7798
▁relaxing	-10.7799
▁bond	-10.7799
ya	-10.7805
▁iOS	-10.7807
▁customized	-10.7809
▁deeply	-10.781
▁Him	-10.781
▁tissue	-10.7811
▁watched	-10.7813
▁studied	-10.7814
▁equivalent	-10.7824
life	-10.7827
▁stability	-10.7829
▁Kong	-10.7835
▁depression	-10.7838
▁narrow	-10.784
▁contributions	-10.7844
▁Senate	-10.7848
▁authentic	-10.7852
▁rolling	-10.7855
▁Force	-10.7857
▁directory	-10.7857
▁mm	-10.7857
▁tap	-10.7858
▁acquired	-10.7858
▁Website	-10.7862
▁tie	-10.7864
▁represented	-10.7866
▁mistakes	-10.7869
▁amongst	-10.7872
▁LA	-10.7879
▁nursing	-10.7883
▁continuous	-10.7889
▁Annual	-10.7889
▁templates	-10.7891
▁officially	-10.7893
▁salad	-10.7895
▁performances	-10.7898
▁maps	-10.79
▁matching	-10.7902
▁emotions	-10.7907
▁belt	-10.7911
▁spectacular	-10.7916
▁MA	-10.7917
▁cooked	-10.7917
▁prime	-10.7918
▁grateful	-10.7922
▁folder	-10.7923
▁WordPress	-10.7923
▁sharp	-10.7925
▁peak	-10.7925
▁50%	-10.793
▁resolve	-10.7932
▁Catholic	-10.7942
▁possibilities	-10.7943
▁granted	-10.7945
▁beautifully	-10.7948
▁nuclear	-10.795
▁slot	-10.7951
▁fifth	-10.7952
▁southern	-10.7953
▁attitude	-10.7957
▁directions	-10.7957
▁Box	-10.7962
▁locally	-10.7965
home	-10.7967
▁draft	-10.7969
▁mountains	-10.7969
▁Finally	-10.7969
▁CO	-10.7971
▁2.0	-10.7973
▁Still	-10.7975
▁Houston	-10.7975
▁keys	-10.7976
▁currency	-10.798
ey	-10.7981
▁Matt	-10.7983
▁tours	-10.7984
▁operational	-10.7984
▁reception	-10.7984
▁Help	-10.7986
▁contracts	-10.7988
Go	-10.7989
▁Arizona	-10.7991
▁Las	-10.7991
▁3-	-10.7994
▁IS	-10.7996
▁Film	-10.8001
▁List	-10.8002
▁Bob	-10.8003
▁occurred	-10.8007
▁sought	-10.8008
▁Server	-10.8008
▁professor	-10.8009
▁emerging	-10.8009
▁Korea	-10.8009
▁situated	-10.8011
▁calm	-10.8015
▁garlic	-10.8019
▁remained	-10.8019
▁personalized	-10.8026
▁expanded	-10.8028
den	-10.8028
▁wake	-10.8029
▁claimed	-10.803
▁curriculum	-10.8033
▁breast	-10.8036
ko	-10.8042
▁abilities	-10.8044
▁resident	-10.8048
▁displays	-10.805
▁assistant	-10.8053
▁Theatre	-10.8054
▁amenities	-10.8057
▁plane	-10.8059
▁Scotland	-10.8069
▁relative	-10.8071
▁tired	-10.8073
▁pitch	-10.8079
▁targeted	-10.808
▁Mount	-10.808
don	-10.8081
▁eliminate	-10.8086
▁investing	-10.8086
▁shade	-10.8094
▁ratio	-10.8099
▁pets	-10.8102
▁spacious	-10.8104
▁decent	-10.8104
▁End	-10.8107
▁Save	-10.811
▁Farm	-10.811
▁Andrew	-10.8115
Who	-10.8115
▁regard	-10.8116
▁sheets	-10.8118
ng	-10.8123
▁(1	-10.8126
▁Products	-10.8126
▁depend	-10.8128
profit	-10.8131
▁existence	-10.8134
▁reaction	-10.8139
▁representatives	-10.814
▁wave	-10.8147
▁struggling	-10.8147
▁Policy	-10.8148
▁roots	-10.8152
▁shapes	-10.8161
tech	-10.8163
▁Golden	-10.8165
▁loose	-10.8167
point	-10.817
▁Easy	-10.8178
Good	-10.8178
▁Illinois	-10.8179
▁opens	-10.8179
▁raising	-10.818
▁Ministry	-10.8183
▁Kids	-10.8187
▁assess	-10.819
▁printer	-10.8192
▁compact	-10.8193
▁philosophy	-10.8193
▁efficiently	-10.8196
▁compete	-10.8198
▁grey	-10.8199
▁UN	-10.821
▁finishing	-10.8213
▁medication	-10.8217
▁rapid	-10.8219
▁Hot	-10.8222
▁vibrant	-10.8225
▁convert	-10.8226
▁titles	-10.8232
▁Golf	-10.8233
▁tons	-10.8235
▁delivers	-10.8236
▁unusual	-10.8237
Because	-10.8237
▁lab	-10.8239
▁Officer	-10.824
from	-10.8244
▁gather	-10.8249
▁wheels	-10.8252
▁fundamental	-10.8253
star	-10.8257
▁institution	-10.8262
▁toilet	-10.8264
▁enforcement	-10.8267
▁weren	-10.8268
▁Glass	-10.8269
▁formula	-10.8277
▁Access	-10.8281
▁scenes	-10.8282
▁Product	-10.8284
▁examination	-10.8287
▁pin	-10.8288
▁equity	-10.8289
▁plot	-10.8289
▁AC	-10.8294
ful	-10.8294
winning	-10.8296
▁conversion	-10.8303
▁sophisticated	-10.8312
▁involve	-10.8312
▁reserve	-10.8314
▁Joseph	-10.8315
▁Join	-10.8321
▁experiencing	-10.8321
▁consequences	-10.8323
▁Hong	-10.8325
▁contractor	-10.8327
▁shoulder	-10.8329
▁Credit	-10.833
▁banking	-10.8331
▁collections	-10.8331
▁Without	-10.8334
▁Camp	-10.8334
▁mistake	-10.8338
▁Dec	-10.834
▁aluminum	-10.8341
▁wider	-10.8342
▁plain	-10.8343
▁Winter	-10.8345
▁cheaper	-10.8346
▁suffered	-10.8347
▁bench	-10.8348
▁Visit	-10.8349
▁Fair	-10.835
▁entitled	-10.835
▁Nov	-10.8351
▁intense	-10.8355
▁flash	-10.8358
US	-10.8359
▁clubs	-10.836
▁warning	-10.836
▁specialized	-10.8369
▁Secretary	-10.8372
▁vendors	-10.8374
▁rated	-10.8375
▁restore	-10.8375
▁beaches	-10.8379
ford	-10.8379
▁solo	-10.838
▁cm	-10.8381
▁column	-10.8382
▁2015,	-10.839
▁exercises	-10.8391
▁appliances	-10.8396
▁Jackson	-10.8398
▁Daniel	-10.8406
▁strange	-10.8406
▁coal	-10.8407
▁Feb	-10.8407
▁editing	-10.8408
▁instantly	-10.8408
▁meaningful	-10.8409
▁ministry	-10.8411
this	-10.8418
▁Tim	-10.8422
▁wins	-10.8428
▁2013.	-10.8437
▁Greek	-10.8438
▁transform	-10.8438
▁75	-10.8442
▁cuts	-10.8444
▁evaluate	-10.8446
▁newest	-10.845
▁actively	-10.8453
▁falls	-10.8454
▁photographer	-10.8455
▁artwork	-10.8459
▁1000	-10.8461
▁financing	-10.8463
▁heritage	-10.8465
▁Tech	-10.8471
▁Perhaps	-10.8472
▁overnight	-10.8473
▁aimed	-10.8474
▁worn	-10.8474
▁false	-10.8476
▁overcome	-10.8477
▁specified	-10.848
▁plug	-10.8482
head	-10.8482
▁respectively	-10.8487
▁opt	-10.8489
town	-10.849
▁newspaper	-10.8499
▁tablet	-10.8502
▁victims	-10.8505
▁Choose	-10.8506
▁wildlife	-10.8506
▁OK	-10.8507
$	-10.8514
lin	-10.8514
▁Iran	-10.8515
▁cooling	-10.8523
▁connecting	-10.8525
▁adopted	-10.8542
▁k	-10.8552
▁acquire	-10.8554
▁journal	-10.8555
▁broke	-10.8558
▁shirt	-10.8559
▁2006	-10.8564
▁makeup	-10.8566
▁pipe	-10.8566
▁Simply	-10.8569
▁edited	-10.8571
▁manufactured	-10.8572
▁passengers	-10.8573
▁sensor	-10.8577
est	-10.8581
▁circuit	-10.8585
▁pizza	-10.859
▁Louis	-10.859
▁Bridge	-10.8591
box	-10.8593
▁letting	-10.8595
▁cooperation	-10.8598
▁universities	-10.86
bar	-10.86
▁conventional	-10.8602
▁weapons	-10.8603
▁nose	-10.8609
▁aged	-10.8612
▁substantial	-10.8617
▁foam	-10.862
▁circle	-10.8626
▁Standard	-10.8629
▁copper	-10.8631
▁instruments	-10.8636
▁Diego	-10.8636
▁happiness	-10.8637
▁washing	-10.8641
▁completing	-10.8645
▁delay	-10.8647
▁harm	-10.8648
▁Pakistan	-10.8653
▁pleasant	-10.8653
▁toys	-10.8654
▁overview	-10.8658
minute	-10.8659
▁opinions	-10.867
▁copies	-10.8672
▁elected	-10.8679
▁basketball	-10.8684
▁ownership	-10.8687
-3	-10.8692
▁Magazine	-10.8694
▁oral	-10.8696
▁gathering	-10.8697
▁Model	-10.8698
▁parks	-10.87
▁Protection	-10.8708
▁advise	-10.8711
▁western	-10.8713
▁instrument	-10.8719
18	-10.8719
▁workout	-10.872
▁permit	-10.8722
▁encounter	-10.8725
▁Bathroom	-10.8725
▁Student	-10.8729
▁mold	-10.8731
ate	-10.8742
▁admit	-10.8743
▁engineers	-10.8744
▁constructed	-10.8746
▁graduated	-10.8748
▁precious	-10.8748
▁Furniture	-10.8751
▁moisture	-10.8753
▁neither	-10.8758
▁surrounded	-10.8761
▁cruise	-10.8768
▁lasting	-10.8772
▁divorce	-10.8773
▁trailer	-10.878
▁crash	-10.878
▁consent	-10.879
▁thoroughly	-10.8791
▁Pennsylvania	-10.8791
▁cats	-10.8796
▁acquisition	-10.8796
▁arrangements	-10.8796
▁removing	-10.88
▁northern	-10.88
▁chronic	-10.8804
▁Computer	-10.8805
▁Everyone	-10.8806
▁Max	-10.881
▁habits	-10.8811
▁u	-10.8817
ant	-10.8818
▁Columbia	-10.882
▁exception	-10.8821
id	-10.8835
▁Off	-10.8837
▁infection	-10.8839
▁distributed	-10.8842
▁installing	-10.8843
▁worship	-10.8847
▁picking	-10.885
▁seller	-10.8851
▁Heart	-10.8851
▁singing	-10.8851
▁Give	-10.8858
▁tube	-10.8859
▁thousand	-10.8869
▁artistic	-10.8873
▁competitors	-10.8878
▁drives	-10.8879
▁•	-10.8882
work	-10.8885
▁Taylor	-10.8885
▁enhanced	-10.8887
il	-10.8888
▁belief	-10.8888
▁Jr	-10.889
▁gardens	-10.8893
▁Personal	-10.8898
▁alumni	-10.8899
▁tonight	-10.8914
▁surely	-10.892
▁applies	-10.892
izing	-10.8922
▁fewer	-10.8933
▁NO	-10.8936
▁pilot	-10.8937
▁wrap	-10.8939
▁producer	-10.8942
▁Halloween	-10.8945
▁sectors	-10.8945
▁Blog	-10.895
▁succeed	-10.8955
▁ft	-10.8958
▁impression	-10.8961
▁33	-10.8961
▁Per	-10.8961
▁artificial	-10.8964
▁integrity	-10.8965
▁winners	-10.8966
▁rarely	-10.8967
▁angle	-10.8969
▁instruction	-10.8972
▁bold	-10.8976
▁hat	-10.8976
▁stayed	-10.8976
▁exists	-10.8977
▁rough	-10.8978
▁Saint	-10.8986
▁drama	-10.8987
▁hosts	-10.8988
▁processed	-10.8989
▁examine	-10.8989
▁union	-10.8992
▁Father	-10.8992
▁Easter	-10.8996
▁Miami	-10.9
▁Exchange	-10.9003
▁Express	-10.9006
▁1/2	-10.9012
Like	-10.9015
▁heavily	-10.9016
▁bands	-10.9017
▁sorry	-10.9017
▁consulting	-10.9017
▁Casino	-10.9019
▁Despite	-10.9022
▁latter	-10.9022
▁Frank	-10.9027
▁math	-10.9041
▁seasons	-10.9041
hand	-10.9045
▁sleeping	-10.9046
▁mattress	-10.9046
Other	-10.9047
▁strive	-10.9053
▁Customer	-10.9058
▁balanced	-10.9059
▁fascinating	-10.906
▁gotten	-10.906
▁assembly	-10.9065
▁describes	-10.9067
▁Form	-10.9067
▁romantic	-10.9077
▁fiber	-10.9078
▁ratings	-10.9078
▁athletes	-10.908
▁suddenly	-10.9081
et	-10.9084
▁backup	-10.9093
▁fruits	-10.9098
▁interviews	-10.9103
▁Would	-10.9104
▁mechanical	-10.9104
▁corn	-10.9106
▁handy	-10.9106
▁reply	-10.9106
▁Sky	-10.9107
▁inspiring	-10.9108
▁meters	-10.911
date	-10.9113
▁spa	-10.9114
▁cabinets	-10.9116
▁Ryan	-10.9117
▁250	-10.9119
▁piano	-10.9126
board	-10.9139
▁smell	-10.9144
▁10%	-10.9153
▁frequent	-10.9153
▁hearts	-10.916
▁2012.	-10.916
▁breaks	-10.9162
▁essentially	-10.9165
▁guides	-10.9165
▁Wedding	-10.9167
▁excellence	-10.917
▁impressed	-10.9175
▁employed	-10.9177
▁diabetes	-10.9177
▁donation	-10.9177
▁Color	-10.9183
▁Type	-10.9185
▁vinyl	-10.9185
▁understood	-10.9186
car	-10.9186
▁versatile	-10.9187
▁casual	-10.9187
▁regulatory	-10.9189
▁Tax	-10.9192
▁discussions	-10.9203
▁restoration	-10.9205
▁Cover	-10.9207
▁losses	-10.921
▁bacteria	-10.9212
▁ear	-10.9214
▁distinct	-10.9218
▁outfit	-10.9225
▁periods	-10.9228
▁Seattle	-10.9228
▁Perfect	-10.923
▁lemon	-10.9233
▁dirt	-10.9236
▁religion	-10.9237
▁puts	-10.924
▁Construction	-10.924
▁purchases	-10.9242
▁guard	-10.9245
▁Custom	-10.9247
▁vice	-10.9252
bit	-10.9256
▁Trade	-10.9259
▁tiles	-10.9264
▁interact	-10.9265
▁singer	-10.9267
▁robust	-10.9271
▁2014,	-10.9272
Two	-10.9272
▁enjoyable	-10.9278
▁API	-10.9279
▁Baby	-10.9279
▁knowledgeable	-10.928
▁experiment	-10.9282
▁chemicals	-10.9282
▁Low	-10.9282
▁attempts	-10.9284
▁symbol	-10.9288
▁decline	-10.9288
▁favor	-10.9291
▁Hollywood	-10.9293
▁protecting	-10.9298
▁beans	-10.9301
▁babies	-10.9302
▁Plant	-10.9303
▁browse	-10.9307
▁olive	-10.931
▁recover	-10.9312
▁Austin	-10.9313
▁frequency	-10.9314
▁strike	-10.9317
7.	-10.9321
▁actor	-10.9322
▁relating	-10.9322
▁Ball	-10.9326
▁lease	-10.9327
di	-10.9329
▁Four	-10.9333
▁supplied	-10.9333
▁2005	-10.9334
▁dramatic	-10.9334
▁mg	-10.9339
▁technicians	-10.9345
▁lawyers	-10.9349
▁representation	-10.935
▁Minnesota	-10.9353
▁accomplish	-10.9353
▁Mini	-10.9353
▁ALL	-10.9356
▁surfaces	-10.9356
▁apartments	-10.9357
▁stood	-10.936
▁Fox	-10.9363
▁everybody	-10.9371
▁h	-10.9371
▁segment	-10.9372
▁65	-10.938
▁merely	-10.9387
▁targets	-10.9389
scale	-10.9394
▁signing	-10.9396
foot	-10.9396
▁respective	-10.9397
▁Level	-10.9398
▁produces	-10.9406
▁disaster	-10.9406
▁victim	-10.941
▁Field	-10.941
fi	-10.9415
ir	-10.9417
▁deserve	-10.9417
▁prison	-10.9421
Any	-10.9423
▁beef	-10.9425
Step	-10.9426
▁addressed	-10.9427
▁shelf	-10.9429
▁steam	-10.9431
▁decrease	-10.9436
▁subscription	-10.9439
world	-10.9444
ups	-10.9446
▁assured	-10.9447
can	-10.9452
▁gentle	-10.9454
Finally	-10.9457
▁Victoria	-10.9459
▁remarkable	-10.9459
▁Mother	-10.9465
▁Think	-10.9465
▁celebrated	-10.9465
▁burn	-10.9467
▁chips	-10.9469
▁suspect	-10.9472
▁listings	-10.9473
▁HR	-10.9474
▁coconut	-10.9475
▁fitted	-10.9477
▁FL	-10.9477
▁contents	-10.9481
▁spare	-10.949
▁quantity	-10.9491
▁administrative	-10.9491
▁nutrition	-10.9495
▁soup	-10.9496
▁apparently	-10.95
▁announcement	-10.9504
▁Oct	-10.9505
▁generations	-10.9513
40	-10.9522
▁Property	-10.9526
ana	-10.9526
▁passes	-10.9535
▁settlement	-10.9535
▁representing	-10.9538
▁damages	-10.9538
▁facilitate	-10.9542
▁scenario	-10.9544
▁drain	-10.9545
▁hopefully	-10.9548
▁appreciated	-10.9548
▁principal	-10.9549
▁releases	-10.9551
▁repeat	-10.9551
▁alike	-10.9552
▁modified	-10.9553
mo	-10.9559
▁publishing	-10.956
▁edges	-10.956
▁transformation	-10.9565
▁difficulty	-10.9567
book	-10.9567
ha	-10.9568
▁discovery	-10.9571
▁jacket	-10.9571
▁paintings	-10.9573
▁honey	-10.9573
▁mouse	-10.9576
▁Action	-10.9577
▁y	-10.9578
▁virtually	-10.9582
▁Industry	-10.9583
▁flag	-10.9591
▁MS	-10.9592
▁apple	-10.9594
▁divided	-10.9595
▁reviewed	-10.9595
▁extraordinary	-10.9595
▁refund	-10.9597
▁salary	-10.9598
▁diagnosis	-10.9598
▁observed	-10.9598
▁emphasis	-10.9598
▁Due	-10.9604
▁Multi	-10.9605
▁behaviour	-10.9605
▁vertical	-10.9607
▁Finance	-10.9609
▁operators	-10.9612
▁survive	-10.9621
▁Republican	-10.9621
▁Working	-10.9622
▁gathered	-10.9624
▁conversations	-10.9627
▁selecting	-10.9628
▁timely	-10.963
▁ON	-10.9631
▁Oregon	-10.9631
▁worried	-10.9637
▁relation	-10.9637
Free	-10.9643
▁argument	-10.9643
▁relaxed	-10.9645
▁shut	-10.9645
▁Henry	-10.9646
▁Non	-10.9648
▁qualify	-10.9651
25	-10.9655
▁pregnancy	-10.9656
▁Latin	-10.9661
▁Supreme	-10.9674
▁operator	-10.9675
▁Bookmark	-10.9675
▁mounted	-10.9676
▁retailers	-10.968
sized	-10.9683
▁translation	-10.9687
▁$5	-10.9691
▁finds	-10.9692
▁Gas	-10.9693
▁admission	-10.9699
▁fraud	-10.9702
▁Adam	-10.9703
▁generous	-10.9705
▁earnings	-10.9705
▁Am	-10.9708
▁fastest	-10.971
▁expanding	-10.9712
▁commission	-10.9712
▁Fall	-10.9713
▁precise	-10.9714
▁pray	-10.9714
▁intellectual	-10.9717
▁wisdom	-10.9718
▁Edition	-10.9721
▁Moon	-10.9721
ize	-10.9722
His	-10.9723
▁55	-10.9725
▁rack	-10.9725
Love	-10.9732
▁encouraging	-10.9732
ac	-10.9734
▁arrested	-10.9735
▁productive	-10.9739
▁Brian	-10.9742
▁dough	-10.9744
▁Dallas	-10.9746
▁ski	-10.9747
▁incorporate	-10.9748
▁Beautiful	-10.9748
▁rings	-10.975
▁wines	-10.9751
▁bio	-10.9751
▁Chair	-10.9757
▁conclusion	-10.9757
▁Alex	-10.9759
▁Change	-10.9761
▁$10	-10.9762
▁minister	-10.9767
▁Turkey	-10.9774
▁accordance	-10.9774
Looking	-10.9775
▁Available	-10.9776
▁entries	-10.9776
▁evil	-10.9779
▁inter	-10.978
▁oils	-10.9781
▁Experience	-10.9781
▁Based	-10.9782
ah	-10.9784
▁combat	-10.9788
▁popularity	-10.9789
▁ill	-10.979
▁blogs	-10.979
▁tourist	-10.9792
▁lightweight	-10.9792
▁exit	-10.9794
▁bug	-10.9797
▁chest	-10.9799
▁attractions	-10.98
▁Delhi	-10.9808
▁placing	-10.9809
▁Daily	-10.9811
▁Tree	-10.9815
▁Certified	-10.9817
▁adoption	-10.9818
▁entertaining	-10.9823
▁grounds	-10.9827
▁workforce	-10.9827
▁sole	-10.9829
▁elsewhere	-10.9835
ham	-10.9837
▁lady	-10.9844
Read	-10.9844
▁powered	-10.9847
▁opposed	-10.9852
▁achieving	-10.9855
▁Everything	-10.9856
American	-10.9858
▁captured	-10.9858
▁specifications	-10.9862
ce	-10.9863
▁proved	-10.9867
▁AI	-10.9869
▁acres	-10.9869
▁AT	-10.9873
▁estimates	-10.9874
▁indicated	-10.9879
▁composition	-10.9879
▁Civil	-10.9881
▁rail	-10.9881
▁navigate	-10.9884
▁Ocean	-10.9885
▁Memorial	-10.9885
▁con	-10.9886
▁Ontario	-10.9888
16	-10.9888
▁Large	-10.9889
▁slide	-10.9891
▁poverty	-10.9894
▁advised	-10.9895
▁theatre	-10.9896
▁prescription	-10.9897
▁Band	-10.9897
▁Cape	-10.9899
▁priced	-10.9899
▁pen	-10.99
▁copyright	-10.9901
▁Authority	-10.9901
▁grace	-10.9901
é	-10.9902
▁lie	-10.9903
▁reverse	-10.9911
▁capability	-10.9912
▁caring	-10.9916
▁Vice	-10.9917
▁Kim	-10.9918
▁Con	-10.9919
ge	-10.9931
▁Need	-10.9932
▁forth	-10.9934
▁Youth	-10.9934
▁streaming	-10.9934
▁parameters	-10.9935
▁Roman	-10.9941
▁locate	-10.9943
▁vulnerable	-10.9949
▁boss	-10.995
▁screening	-10.995
▁Mrs	-10.9962
100	-10.9962
▁Melbourne	-10.9966
▁iconic	-10.9969
▁fiction	-10.997
▁ranked	-10.9971
▁somehow	-10.9975
▁Cook	-10.9975
▁prints	-10.9981
month	-10.9985
▁duration	-10.9988
▁Orange	-10.9988
▁provision	-10.9992
set	-10.9993
▁weak	-10.9993
▁cleaner	-10.9998
▁walks	-11
▁boot	-11.0006
▁courts	-11.0009
con	-11.0009
▁danger	-11.0011
▁Industrial	-11.002
▁mount	-11.0021
▁arranged	-11.0022
▁exclusively	-11.0023
▁wishes	-11.0025
▁Cleaning	-11.0029
▁Atlanta	-11.0033
▁endless	-11.0043
▁memorable	-11.0044
▁Manchester	-11.0045
▁baseball	-11.0045
▁hunting	-11.0045
▁immune	-11.0046
▁crushing	-11.0051
▁hip	-11.0051
▁Environmental	-11.0051
▁Classic	-11.0054
▁export	-11.0055
▁Pay	-11.0056
▁occasions	-11.0056
].	-11.006
▁Assistant	-11.0061
People	-11.0066
▁restrictions	-11.007
▁Advanced	-11.0072
▁reward	-11.0073
▁photograph	-11.0073
▁operates	-11.0074
▁oldest	-11.008
▁ultra	-11.0085
▁Forum	-11.0085
▁publish	-11.0088
▁enabled	-11.009
▁III	-11.0092
▁trails	-11.0095
▁stocks	-11.0095
▁universe	-11.0098
▁bound	-11.0099
▁Ms	-11.0101
▁tennis	-11.0101
▁NFL	-11.0103
▁fireplace	-11.0105
▁donations	-11.0108
▁twin	-11.011
▁resulted	-11.0111
▁Section	-11.0112
▁120	-11.0114
▁Number	-11.0121
▁pointed	-11.0122
ists	-11.0122
▁burning	-11.0123
▁keen	-11.0123
▁Size	-11.0125
▁Ray	-11.0125
▁closet	-11.0125
responsibilities	-11.0133
▁travelling	-11.0138
what	-11.0141
▁bid	-11.0142
▁Ed	-11.015
▁profits	-11.0152
▁Brazil	-11.0153
▁showcase	-11.0161
▁colorful	-11.0163
▁legacy	-11.0163
▁ordinary	-11.0165
▁Linux	-11.0168
▁waves	-11.0169
▁Resume	-11.017
▁34	-11.017
▁permalink	-11.0173
▁excitement	-11.0173
▁tied	-11.0174
q	-11.0176
▁Mo	-11.0177
run	-11.0177
▁jaw	-11.0184
▁DNA	-11.0185
▁stops	-11.0191
▁hide	-11.0192
▁Miller	-11.0193
ability	-11.0195
▁hesitate	-11.0196
▁bulk	-11.0197
▁thorough	-11.0197
▁trucks	-11.0199
▁Run	-11.0203
▁prevention	-11.0207
▁scan	-11.0209
▁musicians	-11.0212
▁crystal	-11.0215
▁Donald	-11.0217
▁Davis	-11.0218
▁swing	-11.0219
law	-11.0225
▁conservation	-11.0228
▁rank	-11.0229
▁Cat	-11.0229
▁wise	-11.0231
Does	-11.0231
▁generic	-11.0234
▁seating	-11.0235
▁Door	-11.0235
▁shaped	-11.0236
▁retain	-11.0237
▁tailored	-11.0238
13	-11.0238
▁hospitals	-11.0239
▁unlike	-11.0241
▁optimal	-11.0244
km	-11.025
▁En	-11.0252
▁buttons	-11.0256
▁expense	-11.0262
▁horses	-11.0262
▁glasses	-11.0267
▁Nature	-11.0269
!”	-11.0269
▁Jordan	-11.0271
▁600	-11.0272
▁MD	-11.0274
▁strengthen	-11.0276
▁assignment	-11.0278
▁mess	-11.0279
▁Select	-11.0279
▁Bush	-11.0279
Best	-11.0281
▁NC	-11.0282
▁2013,	-11.0283
▁Kevin	-11.0284
▁frames	-11.0284
▁conditioning	-11.0286
▁Money	-11.0287
▁Paper	-11.0292
▁batteries	-11.0293
▁Philadelphia	-11.0293
▁sexual	-11.0294
▁Creative	-11.0304
▁VA	-11.0305
▁Dog	-11.0308
ive	-11.0308
ex	-11.031
lo	-11.0315
▁laundry	-11.0315
▁sized	-11.0315
▁ought	-11.0318
▁okay	-11.0319
▁satellite	-11.0321
▁tackle	-11.0323
▁physically	-11.0326
▁keyboard	-11.0326
▁Resources	-11.0327
▁Again	-11.0331
▁dancing	-11.0331
▁preserve	-11.0333
▁stomach	-11.0333
▁voters	-11.0334
▁loop	-11.0335
▁tourism	-11.0339
▁fingers	-11.0352
▁resistant	-11.0355
▁boots	-11.0359
▁movements	-11.036
▁landing	-11.0361
▁tutorial	-11.0362
▁Chapter	-11.0364
▁sentence	-11.0365
▁Iron	-11.0367
▁Regional	-11.0367
▁Double	-11.0368
▁Wisconsin	-11.0371
▁Planning	-11.0382
▁TX	-11.0383
ite	-11.0384
▁plumbing	-11.0384
▁answered	-11.0384
ler	-11.0384
▁spin	-11.0385
▁placement	-11.0388
▁shed	-11.0393
▁deadline	-11.0393
▁formation	-11.0394
▁sorts	-11.0397
▁1.5	-11.0399
▁knee	-11.0399
▁departments	-11.0399
▁involvement	-11.0403
▁pushing	-11.0409
▁Unit	-11.041
ke	-11.0412
▁finger	-11.0414
▁clinic	-11.0414
▁reliability	-11.0418
▁anytime	-11.0423
▁army	-11.043
▁likes	-11.0431
▁references	-11.0433
▁2011.	-11.0435
▁Sound	-11.0435
▁stir	-11.0435
▁lawn	-11.0436
▁Moreover	-11.0438
▁Date	-11.0444
▁elections	-11.0446
▁Sarah	-11.045
▁Bed	-11.0452
▁Member	-11.0453
▁presentations	-11.0453
▁opposition	-11.0454
▁Wales	-11.0454
▁luxurious	-11.0456
▁struck	-11.0471
▁Lady	-11.0471
▁diamond	-11.0472
stone	-11.0473
▁substance	-11.0476
▁summary	-11.0477
▁outdoors	-11.0478
▁Maryland	-11.0481
▁adequate	-11.0482
▁worker	-11.0482
▁followers	-11.0483
2)	-11.0487
▁Interior	-11.0487
▁#1	-11.0489
▁renowned	-11.0494
▁Name	-11.0498
▁dealer	-11.05
▁magical	-11.0501
▁automated	-11.0504
▁suits	-11.0505
▁nail	-11.0507
▁superb	-11.0507
▁prominent	-11.0508
▁fancy	-11.0509
▁coaches	-11.0509
▁grinding	-11.051
▁Li	-11.0511
▁Application	-11.0516
wide	-11.0521
▁fluid	-11.0522
▁principle	-11.0527
▁flavors	-11.0532
ray	-11.0535
being	-11.0539
▁forecast	-11.054
▁delighted	-11.0541
▁20%	-11.055
▁brick	-11.0552
▁User	-11.0553
▁mechanism	-11.0559
▁emissions	-11.0559
▁38	-11.0562
▁duties	-11.0566
▁shoe	-11.0567
▁loaded	-11.0571
▁1990	-11.0573
▁tension	-11.0576
▁Castle	-11.0577
▁Kansas	-11.0578
▁wherever	-11.0579
▁labels	-11.0581
▁calories	-11.059
▁contributed	-11.0591
▁fitting	-11.0593
▁cart	-11.0593
▁Mc	-11.0594
im	-11.0595
▁origin	-11.06
▁64	-11.0601
▁Fast	-11.0603
▁shipped	-11.0604
▁shortly	-11.0608
▁42	-11.0609
▁overseas	-11.061
she	-11.061
▁Within	-11.0611
▁Bedroom	-11.0612
▁Furthermore	-11.0613
▁survival	-11.0617
▁downloaded	-11.0621
▁vitamin	-11.0631
▁Equipment	-11.0631
▁Bio	-11.0631
▁fake	-11.0634
▁secured	-11.0635
Or	-11.0637
▁delete	-11.0638
▁2004	-11.0646
14	-11.0647
▁supplement	-11.0648
▁shock	-11.0649
▁extract	-11.0653
▁lamp	-11.0654
▁consultant	-11.0656
▁Bell	-11.0661
View	-11.0662
▁developments	-11.0668
▁fault	-11.0674
▁complaint	-11.0676
▁rescue	-11.0678
light	-11.0684
▁fridge	-11.0688
▁regulation	-11.069
▁Dark	-11.0691
▁fulfill	-11.0692
▁treats	-11.07
▁carrier	-11.0701
▁venues	-11.0702
▁combines	-11.0703
▁bottles	-11.0704
▁entrepreneurs	-11.0706
▁checks	-11.0716
▁annually	-11.0717
▁pregnant	-11.0718
▁enabling	-11.0719
▁Ph	-11.072
▁variable	-11.0723
-2	-11.0726
▁killing	-11.0727
▁investigate	-11.0729
▁Tri	-11.0732
▁newsletter	-11.0732
▁dose	-11.0733
▁Sciences	-11.0734
▁processor	-11.0738
▁marine	-11.0741
water	-11.0749
▁funded	-11.075
▁Indiana	-11.0751
▁Mass	-11.0752
▁arrangement	-11.0754
▁bay	-11.0754
▁hiking	-11.0755
▁implementing	-11.0766
▁occasionally	-11.0772
ee	-11.0776
▁cookie	-11.0777
▁passenger	-11.0778
▁charging	-11.0784
▁subsequent	-11.0785
▁2-	-11.0786
▁minds	-11.0789
▁optional	-11.0796
▁gate	-11.0798
▁churches	-11.0798
▁routes	-11.0801
▁producers	-11.0807
▁Stephen	-11.0809
▁handled	-11.0811
▁Commercial	-11.0812
▁dialogue	-11.0812
▁organize	-11.0815
▁participated	-11.0817
▁sits	-11.0821
▁transferred	-11.0822
▁indicates	-11.0822
▁DJ	-11.0822
▁gently	-11.0826
▁agenda	-11.0833
▁profiles	-11.0833
▁Hills	-11.0838
▁Map	-11.0838
▁retired	-11.084
▁Resort	-11.0841
▁Prince	-11.0842
▁subtle	-11.0843
▁nations	-11.0844
▁brothers	-11.0845
▁roofing	-11.0845
▁Kit	-11.085
▁spectrum	-11.0854
▁Things	-11.0855
▁bass	-11.0855
▁Performance	-11.0855
▁physician	-11.0858
Learn	-11.086
▁Wild	-11.0873
▁pdf	-11.0874
▁curious	-11.0875
▁wellness	-11.0875
Will	-11.0876
▁Democratic	-11.088
▁threats	-11.0881
▁potatoes	-11.0882
such	-11.0883
ary	-11.0886
▁Elizabeth	-11.0888
▁costly	-11.0888
▁effectiveness	-11.0889
▁Massachusetts	-11.0892
▁Di	-11.0899
▁loads	-11.09
▁regards	-11.0902
▁differently	-11.0903
▁immigration	-11.0908
▁virus	-11.0911
▁Body	-11.0913
▁filing	-11.0914
▁Child	-11.0914
▁odd	-11.0914
▁franchise	-11.0917
▁Side	-11.0921
▁evolution	-11.0926
▁homeowners	-11.0927
▁Championship	-11.093
▁pushed	-11.0932
▁essays	-11.0936
▁tender	-11.0936
▁camping	-11.0938
▁realistic	-11.0938
Having	-11.0943
▁Economic	-11.0948
▁Atlantic	-11.0948
▁cabin	-11.0953
▁grid	-11.0954
▁Win	-11.0956
▁hired	-11.0957
▁Korean	-11.0957
ise	-11.0959
▁patch	-11.0962
▁analytics	-11.0963
▁Trail	-11.0968
party	-11.0968
▁settle	-11.0968
▁frozen	-11.0969
▁hill	-11.0975
▁plates	-11.0975
va	-11.0977
▁bearing	-11.0978
▁Has	-11.0979
▁thesis	-11.0984
nt	-11.0985
▁measured	-11.0986
▁Season	-11.0987
▁Olympic	-11.0993
▁moon	-11.0996
▁trigger	-11.0998
▁Harry	-11.0998
▁basement	-11.1001
▁2003	-11.1001
▁lounge	-11.1002
▁Inter	-11.1004
▁Us	-11.1004
▁Create	-11.1005
▁shell	-11.1008
▁attorneys	-11.101
▁actors	-11.1016
▁trick	-11.1017
▁login	-11.1018
▁Dave	-11.1019
▁settled	-11.102
▁airline	-11.1022
▁roughly	-11.1026
▁disk	-11.1026
60	-11.1027
▁Wilson	-11.1034
▁automation	-11.1035
▁backyard	-11.1038
▁Below	-11.1038
▁poetry	-11.1039
▁Galaxy	-11.1039
▁mixing	-11.1043
▁specialty	-11.1045
▁Story	-11.1047
▁hitting	-11.1049
ti	-11.1051
ten	-11.1051
▁DIY	-11.1054
▁unlikely	-11.1056
▁(2	-11.1056
▁governments	-11.1061
▁(“	-11.1062
ised	-11.1062
▁stopping	-11.1062
▁$2	-11.1064
▁affects	-11.1064
ul	-11.1066
▁Books	-11.1068
▁ISO	-11.107
top	-11.1072
▁measurement	-11.1075
Both	-11.1075
▁Girl	-11.1077
▁reduces	-11.1078
▁Enterprise	-11.1078
▁scoring	-11.1078
▁Nations	-11.1078
▁filters	-11.1079
▁Springs	-11.108
high	-11.1082
▁territory	-11.1085
▁stakeholders	-11.1086
just	-11.1087
▁dimensions	-11.1088
▁sum	-11.1089
▁disability	-11.109
▁guided	-11.1091
▁difficulties	-11.1094
▁underlying	-11.1099
▁sustainability	-11.1099
▁fleet	-11.11
▁zip	-11.11
service	-11.11
▁races	-11.1101
▁leaf	-11.1103
sen	-11.1103
▁Cancer	-11.1104
▁import	-11.1105
▁tourists	-11.1105
▁maker	-11.1105
▁hook	-11.1107
▁collective	-11.1108
▁composed	-11.1108
▁achievement	-11.1109
▁associate	-11.111
▁invitation	-11.1113
▁ladies	-11.1117
▁alarm	-11.1117
▁Nick	-11.1119
▁Job	-11.113
▁scratch	-11.1132
▁engineer	-11.1132
▁accomplished	-11.1133
▁analyze	-11.1135
▁sequence	-11.1135
▁Ka	-11.1139
▁Down	-11.1139
▁murder	-11.1144
▁1980	-11.1144
sh	-11.1145
▁offerings	-11.1147
▁suited	-11.1153
▁climb	-11.1158
▁witness	-11.116
▁surprising	-11.116
▁voted	-11.1163
▁profession	-11.1166
8.	-11.1167
▁gray	-11.1168
▁2012,	-11.1169
▁slip	-11.117
▁alternatives	-11.1171
▁SO	-11.1175
▁drops	-11.1176
▁knife	-11.1181
▁designated	-11.1181
▁diameter	-11.1182
▁sing	-11.1182
▁Self	-11.1183
▁structural	-11.1186
▁disorders	-11.1188
▁min	-11.1191
▁aggressive	-11.1191
▁accompanied	-11.1194
let	-11.1195
▁concentration	-11.1195
▁imagination	-11.1195
▁Wars	-11.1195
▁Jeff	-11.1196
▁decorative	-11.1196
▁auction	-11.1197
▁pie	-11.1201
http	-11.1203
▁nicely	-11.1203
▁directors	-11.1205
▁tub	-11.1206
ons	-11.1207
▁37	-11.1208
▁narrative	-11.1213
▁Pan	-11.122
▁solely	-11.1221
▁enjoys	-11.1221
▁GPS	-11.1222
▁breathing	-11.1222
▁feeding	-11.1223
▁identifying	-11.1223
Pro	-11.1223
▁Ask	-11.1227
▁whereas	-11.1227
▁Berlin	-11.1227
▁celebrating	-11.1228
▁Study	-11.1229
▁demonstrated	-11.1231
op	-11.1232
▁replacing	-11.1235
▁BC	-11.1236
▁tower	-11.1239
▁canvas	-11.1243
▁grocery	-11.1244
▁backed	-11.1245
▁timing	-11.1246
▁smoking	-11.1247
▁Course	-11.125
▁varied	-11.1251
▁disorder	-11.1256
▁Net	-11.1257
ba	-11.1258
▁loud	-11.1261
our	-11.1264
air	-11.1264
▁Storage	-11.1265
▁decorating	-11.1266
▁preferences	-11.1267
▁Dutch	-11.1268
▁trim	-11.1269
▁broadcast	-11.1272
▁Stock	-11.1277
▁internationally	-11.1282
▁guilty	-11.1282
▁laugh	-11.1288
▁01	-11.1289
▁tablets	-11.1294
▁explanation	-11.1296
▁weird	-11.13
only	-11.13
▁comply	-11.13
▁tasty	-11.1302
▁destinations	-11.1304
▁addiction	-11.1305
▁exploration	-11.1308
▁Ave	-11.1311
▁ban	-11.1313
▁alert	-11.1319
pa	-11.1321
▁grain	-11.1323
▁poker	-11.1326
▁contacts	-11.133
▁shades	-11.1331
▁utilizing	-11.1332
▁coupons	-11.1336
▁exhibit	-11.1338
▁architectural	-11.1339
▁Follow	-11.134
ol	-11.1343
ki	-11.1347
▁dressing	-11.1349
▁$100	-11.1349
▁blow	-11.1351
▁execution	-11.1352
▁qualities	-11.1353
▁Iraq	-11.1354
▁NEW	-11.136
-12	-11.1362
▁confirmation	-11.1365
▁betting	-11.1369
▁promises	-11.1369
ER	-11.1369
ny	-11.1371
▁Homes	-11.1371
▁Tony	-11.1375
who	-11.1379
▁unlimited	-11.138
▁purple	-11.138
▁Jason	-11.138
Contact	-11.1381
hi	-11.1385
▁soccer	-11.1386
▁climbing	-11.1389
▁nervous	-11.139
▁intention	-11.1391
▁PhD	-11.1393
▁collecting	-11.1395
▁colored	-11.1396
▁versus	-11.1398
▁marketplace	-11.1398
▁dependent	-11.1399
▁commit	-11.1403
ous	-11.1403
▁enemy	-11.1404
▁2010.	-11.1405
▁promotional	-11.1407
▁charm	-11.1407
▁bite	-11.1409
▁mystery	-11.141
▁Chi	-11.1411
▁carries	-11.1412
▁vacuum	-11.1415
▁Football	-11.1416
▁automotive	-11.1425
▁swim	-11.1428
wa	-11.143
▁consult	-11.1431
▁nuts	-11.1433
▁blind	-11.1441
▁Hand	-11.1441
▁audiences	-11.1442
▁medications	-11.1444
▁hadn	-11.1446
▁theater	-11.1449
▁seasonal	-11.1449
May	-11.1454
TV	-11.1457
▁tune	-11.1458
▁balls	-11.1458
▁branches	-11.1459
▁satisfy	-11.1464
▁treating	-11.1465
Using	-11.147
owned	-11.147
▁motivation	-11.1474
Despite	-11.1478
17	-11.1481
▁r	-11.1482
▁intervention	-11.1484
▁Ad	-11.1492
▁yield	-11.1498
▁width	-11.1499
▁neighbors	-11.1499
mi	-11.15
ad	-11.1502
▁embrace	-11.1503
der	-11.1505
▁Style	-11.1507
▁harmful	-11.1508
▁Never	-11.151
▁scholarship	-11.1513
sa	-11.1516
▁easiest	-11.1517
▁declared	-11.1517
▁Was	-11.1517
▁seal	-11.1517
Home	-11.1518
▁Sport	-11.1519
▁powers	-11.1523
▁disc	-11.1525
▁motivated	-11.1527
▁Electric	-11.1532
▁twist	-11.1534
▁mild	-11.1535
room	-11.1536
▁collaborative	-11.1537
▁interactions	-11.1539
▁rewards	-11.1541
▁agricultural	-11.1541
▁Core	-11.1542
▁integrate	-11.1551
▁penalty	-11.1553
▁Patrick	-11.1554
▁countless	-11.1554
▁ink	-11.1555
▁PR	-11.1556
▁remind	-11.1559
▁Pages	-11.1561
▁1,000	-11.1563
round	-11.1563
depth	-11.1566
▁Letter	-11.1567
▁Vancouver	-11.157
▁Phone	-11.1572
▁universal	-11.1573
▁sponsored	-11.1582
▁technological	-11.1585
▁credits	-11.1588
▁Walk	-11.1589
▁precision	-11.1592
▁meditation	-11.1594
▁Want	-11.1594
”)	-11.1594
▁steady	-11.1594
▁portal	-11.1594
▁flood	-11.1594
▁Template	-11.1595
▁Case	-11.1598
▁Practice	-11.1601
▁accidents	-11.1604
▁containers	-11.1604
▁Challenge	-11.1605
▁Simple	-11.1609
▁Following	-11.161
za	-11.1613
▁shine	-11.1613
▁vendor	-11.1614
▁jazz	-11.1616
▁publications	-11.1624
ja	-11.1625
▁Short	-11.1627
▁hardly	-11.1627
ak	-11.1629
▁Toyota	-11.1629
▁specially	-11.1632
▁drove	-11.1635
▁proceed	-11.1636
▁800	-11.1637
▁admin	-11.1638
▁Bring	-11.1639
▁adapt	-11.1639
▁plugin	-11.1639
▁Vietnam	-11.1644
Me	-11.165
▁clip	-11.1654
▁Metal	-11.1655
Those	-11.1655
▁supporters	-11.1658
▁enormous	-11.1661
▁makers	-11.1664
▁tries	-11.1667
size	-11.1669
▁terrible	-11.1669
▁formats	-11.1672
▁towns	-11.1674
▁verify	-11.1683
▁recall	-11.1685
▁laboratory	-11.1688
called	-11.1689
Call	-11.1691
▁pp	-11.1692
▁pour	-11.1695
▁hybrid	-11.1696
▁4-	-11.1697
▁tags	-11.1698
▁junior	-11.1698
▁cultures	-11.17
▁responded	-11.17
▁expecting	-11.17
▁heater	-11.1706
▁grants	-11.1708
▁voting	-11.1708
▁10-	-11.1715
▁SC	-11.1716
▁Alliance	-11.1716
▁champion	-11.1717
Very	-11.1718
▁screens	-11.1719
▁Premier	-11.1721
▁Early	-11.1722
▁affiliate	-11.1722
▁podcast	-11.1723
▁tomatoes	-11.1725
▁aging	-11.1729
▁Kelly	-11.1731
▁couples	-11.1733
▁reform	-11.1736
▁limitations	-11.1738
▁placeholder	-11.1741
Download	-11.1745
▁identification	-11.1747
▁Iowa	-11.1747
▁Dental	-11.1749
▁Lincoln	-11.1755
▁welcoming	-11.1756
care	-11.1756
▁tropical	-11.1757
▁detection	-11.1757
▁hence	-11.176
▁shelter	-11.1762
Co	-11.1763
▁dentist	-11.1772
▁promised	-11.1773
▁writes	-11.1773
▁strip	-11.1774
▁Aug	-11.1774
▁chip	-11.1775
▁exceed	-11.1776
▁peaceful	-11.1777
▁disabled	-11.1781
▁foster	-11.1781
ney	-11.1782
▁Heritage	-11.1782
▁discipline	-11.1784
▁Age	-11.1786
ted	-11.1789
▁Anti	-11.1791
▁Share	-11.1791
▁Front	-11.1792
▁cloth	-11.1792
Which	-11.1792
▁candy	-11.1793
▁requiring	-11.1795
▁hike	-11.1795
▁Miss	-11.1796
▁Islamic	-11.1799
▁Much	-11.1802
ina	-11.1802
▁disappointed	-11.1803
▁Members	-11.1804
▁beloved	-11.1807
▁Coffee	-11.1816
▁Channel	-11.1829
▁dozen	-11.1829
▁cuisine	-11.1831
even	-11.1833
▁ships	-11.1835
▁Sign	-11.1836
step	-11.1837
▁Dream	-11.1837
▁begun	-11.184
▁peer	-11.1841
▁Thanksgiving	-11.1843
▁demo	-11.1844
▁Dance	-11.1844
▁rolled	-11.1845
▁Eric	-11.1846
24	-11.1847
▁admitted	-11.1847
▁shorter	-11.1847
▁nationwide	-11.1847
▁Event	-11.1848
▁relate	-11.1852
game	-11.1854
ber	-11.1855
▁careers	-11.1857
▁NJ	-11.186
▁acceptable	-11.1862
▁temple	-11.1866
▁trials	-11.1868
gen	-11.1869
Did	-11.187
ance	-11.187
▁Sony	-11.1872
▁absence	-11.1873
▁applicants	-11.1877
▁impacts	-11.188
▁strict	-11.1886
▁Egypt	-11.1888
▁Email	-11.1888
▁Spa	-11.1891
▁distinctive	-11.1899
▁drag	-11.1901
▁entity	-11.1902
▁Simon	-11.1904
▁comedy	-11.1907
▁Always	-11.1909
▁Ha	-11.1909
▁refers	-11.1916
▁Pinterest	-11.192
▁complaints	-11.1923
▁healthier	-11.1923
La	-11.1926
▁Dubai	-11.1926
▁39	-11.1929
▁Direct	-11.1931
▁soap	-11.194
▁discussing	-11.1947
▁wrapped	-11.1951
▁Clean	-11.1952
▁adjustable	-11.1954
▁somebody	-11.1959
▁Stop	-11.196
▁Future	-11.1963
▁neutral	-11.1965
-10	-11.1968
▁Nigeria	-11.1972
▁establishment	-11.1973
▁patent	-11.1975
▁continuously	-11.1977
▁Missouri	-11.1979
▁2002	-11.1983
PM	-11.1983
▁2019,	-11.1986
▁barely	-11.199
▁earning	-11.1995
▁Stay	-11.1998
▁modules	-11.1999
▁Grant	-11.1999
les	-11.2002
▁individually	-11.2006
▁recycling	-11.2008
▁Oklahoma	-11.2008
▁Oak	-11.2009
▁recruitment	-11.2012
LY	-11.2013
▁slots	-11.2015
▁mask	-11.2015
▁boats	-11.2015
▁blessed	-11.2016
▁44	-11.2016
▁Lane	-11.2016
▁Clinton	-11.2019
▁Marine	-11.2019
▁Sir	-11.2019
▁Da	-11.2021
▁Round	-11.2021
▁instructor	-11.2021
▁Bureau	-11.2022
speed	-11.2027
▁documentary	-11.2028
red	-11.203
▁reflects	-11.2033
▁Kentucky	-11.2035
▁invested	-11.2036
▁authorized	-11.2037
▁phrase	-11.2038
▁Affairs	-11.204
▁liver	-11.204
▁charming	-11.2041
▁overwhelming	-11.2044
▁Thailand	-11.2044
▁dedication	-11.2046
▁nurse	-11.2046
▁Writing	-11.2047
▁Reading	-11.2049
1)	-11.2049
▁eco	-11.2051
▁Tea	-11.2053
▁snack	-11.2054
▁attendance	-11.2054
▁maximize	-11.2056
▁painful	-11.2057
▁Highway	-11.2058
▁Mid	-11.206
▁rocks	-11.2063
▁permitted	-11.2064
▁blogging	-11.2067
▁49	-11.2067
▁veteran	-11.2067
they	-11.2068
▁Five	-11.2072
▁Hair	-11.2074
▁Gift	-11.2074
▁Outdoor	-11.2076
▁Friends	-11.2077
▁Lewis	-11.2081
▁odds	-11.2081
??	-11.2081
▁varieties	-11.2083
▁Agreement	-11.2084
▁Ma	-11.2085
▁Currently	-11.2092
▁URL	-11.2093
▁Bo	-11.2094
▁converted	-11.2094
▁onion	-11.2097
▁startup	-11.2103
▁floating	-11.2104
▁confused	-11.2105
▁boasts	-11.2107
ga	-11.211
▁hell	-11.2111
▁2.5	-11.2111
ji	-11.2111
▁BBC	-11.2115
▁ore	-11.2119
▁mature	-11.212
▁paste	-11.212
▁dried	-11.2123
▁lovers	-11.2123
▁delicate	-11.2129
▁Sub	-11.2129
▁adventures	-11.2129
▁hub	-11.2132
▁Muslim	-11.2134
▁Inn	-11.2136
▁premier	-11.2137
▁Complete	-11.2137
Man	-11.2137
▁du	-11.2138
▁VPN	-11.2138
▁Ho	-11.2139
▁forgotten	-11.214
▁ranking	-11.2142
▁accused	-11.2147
Keep	-11.2147
▁oak	-11.2148
▁possess	-11.215
▁signals	-11.215
▁handful	-11.2152
▁centuries	-11.2152
▁burden	-11.2154
▁mineral	-11.2154
▁USD	-11.2156
▁teaches	-11.2164
▁prestigious	-11.2165
▁ordering	-11.2165
▁agreements	-11.2166
▁2011,	-11.2173
▁ignore	-11.2173
▁electronics	-11.2176
week	-11.2178
▁spouse	-11.2178
▁controller	-11.2179
▁considerable	-11.2181
▁Put	-11.2189
▁couch	-11.2189
▁customize	-11.219
▁titled	-11.219
▁destroyed	-11.2191
▁bet	-11.2194
▁console	-11.2202
▁Nothing	-11.2204
min	-11.2206
▁habit	-11.2208
▁soldiers	-11.2208
▁Motor	-11.2213
▁appreciation	-11.2218
▁cleaned	-11.222
▁kits	-11.2222
▁Making	-11.2222
are	-11.2227
▁waters	-11.2228
▁continually	-11.2232
▁spoken	-11.2235
▁heated	-11.2236
▁demanding	-11.2238
▁navigation	-11.2242
▁computing	-11.2242
▁floral	-11.2242
▁Netherlands	-11.2244
▁rush	-11.2248
▁lighter	-11.2249
▁blame	-11.225
▁favorites	-11.2252
▁Jo	-11.2253
▁ok	-11.2253
looking	-11.2255
ship	-11.2259
▁Mexican	-11.2261
▁Temple	-11.2264
▁tail	-11.2266
mar	-11.2266
▁additionally	-11.2268
▁slight	-11.2268
▁dresses	-11.2269
▁Cash	-11.2269
▁finishes	-11.227
▁Records	-11.2274
▁Ice	-11.2275
▁fantasy	-11.2278
▁parallel	-11.2279
▁Besides	-11.2286
▁Source	-11.2287
▁visa	-11.2287
▁Floor	-11.2287
▁recommendation	-11.2287
▁separately	-11.2287
▁Restaurant	-11.2288
ns	-11.2289
▁holder	-11.229
▁Lab	-11.229
▁vegetable	-11.2292
▁intimate	-11.2293
▁measuring	-11.2294
▁lenses	-11.2295
▁speeds	-11.2298
▁pasta	-11.2298
▁stays	-11.2301
▁valued	-11.2304
▁Ten	-11.2306
▁Ann	-11.2309
▁tremendous	-11.2311
▁colleges	-11.2315
▁Bowl	-11.2315
▁4,	-11.2318
▁Morgan	-11.2323
▁hero	-11.233
Up	-11.2337
▁Know	-11.2343
▁suspension	-11.2343
ard	-11.2345
▁facial	-11.2345
▁Islands	-11.2349
▁locked	-11.2349
bo	-11.2352
▁HERE	-11.2352
▁adorable	-11.236
ster	-11.236
▁transparent	-11.2361
▁moderate	-11.2362
▁incorporated	-11.2363
▁Navy	-11.2363
▁utilized	-11.2367
▁Description	-11.2369
▁Anderson	-11.2376
▁responsive	-11.2378
▁crafted	-11.2379
▁Content	-11.238
▁terminal	-11.2381
▁crop	-11.2383
▁tear	-11.2388
▁cancel	-11.2389
▁del	-11.239
▁stem	-11.239
▁merchandise	-11.239
▁trash	-11.2395
▁acceptance	-11.2395
▁Micro	-11.2395
▁prospects	-11.2398
▁Fresh	-11.2399
▁chef	-11.24
▁grill	-11.24
▁stroke	-11.2402
▁Manual	-11.2405
Her	-11.2407
▁investor	-11.241
▁detect	-11.241
▁intent	-11.2416
▁Single	-11.2416
▁stones	-11.2417
▁Sept	-11.2417
▁islands	-11.2418
19	-11.2418
▁gains	-11.2419
▁Scottish	-11.2419
▁5-	-11.2425
mg	-11.2427
▁mutual	-11.2428
▁observe	-11.2431
▁visibility	-11.2433
page	-11.2434
▁Fine	-11.2434
▁Allen	-11.2437
John	-11.2438
▁essence	-11.2444
▁measurements	-11.2445
▁complexity	-11.2448
▁donated	-11.245
▁dessert	-11.2452
▁Chairman	-11.2454
▁taxi	-11.2456
▁desert	-11.2456
▁beliefs	-11.2459
▁province	-11.246
▁marijuana	-11.2462
▁Step	-11.2464
▁Holiday	-11.2464
▁programmes	-11.2465
▁snacks	-11.2467
▁preventing	-11.247
▁simultaneously	-11.247
▁grows	-11.2471
▁Cambridge	-11.2471
▁presenting	-11.2472
▁RE	-11.2472
▁bathrooms	-11.2474
▁rug	-11.2476
▁instances	-11.2478
era	-11.2482
▁Malaysia	-11.2483
▁360	-11.2483
▁ears	-11.2485
▁Reserve	-11.2486
▁YOUR	-11.2491
▁nutrients	-11.2495
▁Companies	-11.2497
▁mobility	-11.2497
▁sensors	-11.2498
▁handles	-11.2502
▁possession	-11.2503
▁Denver	-11.2504
▁Brand	-11.2504
▁Falls	-11.2507
▁Metro	-11.251
▁homemade	-11.2515
▁skip	-11.2515
▁comic	-11.2518
▁striking	-11.2522
good	-11.2523
▁Democrats	-11.2524
▁sees	-11.2525
▁Better	-11.2526
▁Prize	-11.2527
▁hunt	-11.2527
▁Bitcoin	-11.2528
▁par	-11.253
▁crown	-11.2532
▁Fish	-11.2533
▁prospective	-11.2534
▁contacted	-11.2534
▁cups	-11.2535
ci	-11.2535
ology	-11.2536
▁manually	-11.2548
▁Jay	-11.2548
▁competing	-11.2549
▁semester	-11.2552
▁solving	-11.2553
▁Euro	-11.2561
▁Cut	-11.2563
▁BE	-11.2566
▁anticipated	-11.2567
▁modify	-11.2567
▁closest	-11.2567
▁supplements	-11.2569
▁Title	-11.2571
▁outer	-11.2571
▁LOVE	-11.2573
▁2001	-11.2574
▁shelves	-11.2574
▁cord	-11.2576
▁Dating	-11.2578
▁7,	-11.258
▁boundaries	-11.258
▁Coloring	-11.2581
▁crack	-11.2582
32	-11.2585
▁Cal	-11.2585
▁deciding	-11.2586
9.	-11.259
▁notification	-11.2598
edu	-11.2599
▁Portland	-11.26
▁350	-11.26
▁booked	-11.2601
200	-11.2601
▁Tennessee	-11.261
▁dive	-11.2611
▁lately	-11.2613
▁prizes	-11.2615
▁refreshing	-11.2617
kin	-11.2617
▁precisely	-11.2618
▁prompt	-11.2618
▁Son	-11.262
▁defeat	-11.262
▁herbs	-11.2623
▁pockets	-11.2624
▁agriculture	-11.2624
▁reveals	-11.2624
MP	-11.2624
▁promo	-11.2635
▁Schools	-11.2635
rich	-11.2636
▁thrown	-11.2639
▁Along	-11.2641
▁packing	-11.2646
▁Technical	-11.2647
▁homework	-11.2653
▁oxygen	-11.2654
▁libraries	-11.2655
▁Hard	-11.2655
▁intake	-11.2657
▁Among	-11.2659
▁submission	-11.2667
▁basket	-11.2667
▁Assembly	-11.2671
▁moral	-11.2671
▁ceramic	-11.2679
▁HTML	-11.2679
▁File	-11.2682
▁Palm	-11.2682
▁pants	-11.2683
▁Com	-11.2684
▁reminder	-11.2684
▁genre	-11.2685
▁aesthetic	-11.2685
▁Sri	-11.2685
▁Vol	-11.2687
▁Alabama	-11.2689
▁dirty	-11.2694
▁loading	-11.2696
▁premises	-11.2702
▁gaining	-11.2702
▁hassle	-11.2703
▁Detroit	-11.2705
▁Ken	-11.2705
▁intelligent	-11.2707
▁grades	-11.2709
▁appealing	-11.271
▁accessed	-11.2713
▁traditions	-11.2716
▁genetic	-11.272
▁dozens	-11.2722
▁supportive	-11.2723
▁votes	-11.2724
▁Girls	-11.2724
▁Peace	-11.2732
▁Attorney	-11.2733
▁crisp	-11.2734
▁pulling	-11.2738
po	-11.2742
▁machinery	-11.2743
▁publicly	-11.2743
▁CT	-11.2744
▁devoted	-11.2748
▁Utah	-11.2751
▁Te	-11.2752
▁proposals	-11.2752
▁Pass	-11.2757
▁poster	-11.2759
▁reflection	-11.2762
▁Mayor	-11.2763
▁Yoga	-11.2766
▁tires	-11.2767
▁Communications	-11.2767
▁manufacture	-11.2768
▁Anthony	-11.2769
▁footage	-11.2769
▁sin	-11.2776
▁1970	-11.2778
▁addressing	-11.2782
▁Oxford	-11.2787
▁attendees	-11.2788
▁Turn	-11.279
▁Saudi	-11.2793
▁Pet	-11.2794
▁determination	-11.2801
▁Legal	-11.2802
▁legendary	-11.2803
▁judgment	-11.2803
school	-11.2807
▁Account	-11.2809
▁Philippines	-11.281
▁google	-11.281
▁psychological	-11.2812
▁coastal	-11.2813
▁(1)	-11.2816
▁Rome	-11.282
▁unfortunately	-11.2822
▁tire	-11.2823
▁protective	-11.2826
▁decoration	-11.2826
▁assisted	-11.283
▁speaks	-11.283
De	-11.2833
▁Works	-11.2835
▁donate	-11.284
▁Tower	-11.284
▁Meeting	-11.2844
▁corporations	-11.2844
▁41	-11.2846
▁Wine	-11.2853
view	-11.2853
▁Solar	-11.2854
right	-11.2855
▁Far	-11.2855
▁globally	-11.2858
▁Palace	-11.2858
ring	-11.2862
▁Engine	-11.2863
▁Java	-11.2863
▁Magic	-11.2864
▁durability	-11.2871
▁und	-11.2872
▁dressed	-11.2878
%	-11.2879
▁grip	-11.2883
▁denied	-11.2887
▁apparent	-11.2888
▁combining	-11.2888
▁coins	-11.2889
▁straightforward	-11.289
▁progressive	-11.289
▁Bad	-11.2895
▁printable	-11.29
▁decorated	-11.29
▁independence	-11.2901
▁AR	-11.2901
▁Talk	-11.2907
▁clarity	-11.2909
Time	-11.2911
▁complimentary	-11.2912
▁fallen	-11.2915
▁welcomed	-11.2918
▁alleged	-11.292
▁batch	-11.2925
▁Na	-11.2925
▁Unlike	-11.2928
▁singles	-11.2929
▁Caribbean	-11.2931
▁arise	-11.2937
▁gradually	-11.2937
▁Link	-11.2937
▁recipient	-11.2938
▁PS	-11.2939
▁professionally	-11.2941
▁viewers	-11.2942
ger	-11.2945
▁2010,	-11.2958
▁Matthew	-11.2967
ins	-11.297
▁variations	-11.2972
▁heaven	-11.2974
▁employ	-11.2974
▁Fashion	-11.2974
3)	-11.2975
▁lined	-11.2981
win	-11.2981
▁diagnosed	-11.2981
▁magnificent	-11.2981
▁boring	-11.2987
▁Syria	-11.2988
▁Honda	-11.2989
▁pollution	-11.299
▁Quick	-11.2992
▁conferences	-11.2995
▁Israeli	-11.2995
▁pit	-11.2995
▁Gen	-11.2997
driven	-11.2998
▁Located	-11.2998
▁funeral	-11.2999
▁queries	-11.3003
▁True	-11.3004
isation	-11.3008
▁Christians	-11.301
▁outlet	-11.3013
gov	-11.3015
▁Urban	-11.3017
▁onions	-11.3017
▁dear	-11.3018
▁Plans	-11.3019
▁episodes	-11.3021
▁Excel	-11.3022
▁contributing	-11.3022
▁figured	-11.3023
▁championship	-11.3023
▁weapon	-11.3027
▁blank	-11.303
▁beneath	-11.3036
-4	-11.3039
▁Ali	-11.3039
▁fixtures	-11.3039
▁refrigerator	-11.3047
▁refused	-11.3047
▁Maine	-11.305
▁Mission	-11.3055
▁nobody	-11.3056
▁influenced	-11.3057
▁tricks	-11.306
▁tears	-11.3062
▁keywords	-11.3062
▁granite	-11.3062
▁density	-11.3063
ini	-11.3065
▁classical	-11.3067
▁43	-11.3071
▁argue	-11.3085
▁defensive	-11.3088
Star	-11.3088
▁litigation	-11.309
▁Medicare	-11.3091
▁sixth	-11.3092
▁reminded	-11.3097
▁sunny	-11.3104
▁offense	-11.3106
▁logic	-11.3108
▁asks	-11.3114
▁partnerships	-11.3114
▁1960	-11.3116
▁Print	-11.3118
▁IL	-11.312
▁excessive	-11.312
▁adopt	-11.3121
▁Used	-11.3125
▁unnecessary	-11.3125
▁Greece	-11.3128
▁Foreign	-11.313
pro	-11.313
▁peers	-11.3132
▁intend	-11.3132
▁tale	-11.3133
▁nearest	-11.3133
▁valve	-11.3135
▁uk	-11.3138
▁ties	-11.3142
▁Exam	-11.3143
▁launching	-11.3146
▁lyrics	-11.3147
▁wing	-11.315
▁pad	-11.3151
▁safer	-11.3155
▁Too	-11.3155
▁labour	-11.3157
▁compelling	-11.3159
lan	-11.3163
▁thermal	-11.3165
▁Panel	-11.3165
▁stack	-11.3166
cha	-11.3166
▁gambling	-11.3167
▁provisions	-11.3169
▁Certificate	-11.3169
Only	-11.3171
▁voices	-11.3171
▁transit	-11.3173
▁minimize	-11.3173
▁paths	-11.3178
▁disabilities	-11.3179
▁elderly	-11.318
▁Analysis	-11.3181
▁Pop	-11.3181
▁pork	-11.3181
▁consistency	-11.3182
▁educate	-11.3182
▁protocol	-11.3182
▁72	-11.3183
▁Speed	-11.3184
▁readily	-11.3185
▁bi	-11.3187
▁basics	-11.3189
▁vanilla	-11.319
▁nonprofit	-11.319
▁broker	-11.3191
▁bones	-11.3192
▁lawsuit	-11.3193
▁deaths	-11.3194
▁Innovation	-11.3194
▁Flash	-11.3198
▁Valentine	-11.3204
▁audit	-11.3205
▁priorities	-11.3205
▁optimization	-11.3207
▁tastes	-11.321
▁Together	-11.3211
▁preference	-11.3213
▁obligation	-11.3214
▁Governor	-11.3215
▁cycling	-11.3215
▁districts	-11.3228
▁blocked	-11.3229
person	-11.3232
▁animation	-11.3233
▁accepting	-11.3236
▁veterans	-11.3238
Under	-11.3241
▁dairy	-11.3241
▁seemingly	-11.3242
▁delight	-11.3243
▁advocate	-11.3245
▁highlighted	-11.3246
▁builds	-11.3247
▁attempting	-11.3251
▁establishing	-11.326
▁embedded	-11.3262
▁Beauty	-11.3264
▁Jean	-11.3266
▁quest	-11.3267
berg	-11.3271
▁integral	-11.3275
▁defend	-11.3281
▁relaxation	-11.3281
▁uploaded	-11.3282
▁corners	-11.3283
▁insulation	-11.3284
▁Thai	-11.3285
▁2009.	-11.3286
▁fiscal	-11.3287
▁Apr	-11.3288
list	-11.3289
▁seeks	-11.3291
▁Swiss	-11.3294
▁charts	-11.3295
▁leverage	-11.3297
▁affairs	-11.3298
▁Phoenix	-11.3299
▁chairman	-11.33
▁disposal	-11.3301
▁reaches	-11.3301
▁identical	-11.3304
▁insert	-11.3319
▁honored	-11.3321
▁46	-11.3321
▁screw	-11.3326
▁highway	-11.3326
▁brass	-11.3329
ek	-11.3332
yard	-11.3333
▁Bachelor	-11.3333
ang	-11.3334
▁Stadium	-11.3335
▁surgical	-11.3337
▁graduation	-11.3338
▁talents	-11.3339
▁Ultra	-11.3339
▁pics	-11.3341
▁Update	-11.3345
▁Summit	-11.3347
▁antique	-11.3352
▁Mom	-11.3352
▁Anne	-11.3352
state	-11.3353
▁corresponding	-11.3356
▁bankruptcy	-11.3358
▁underground	-11.336
▁consecutive	-11.3363
▁fed	-11.3364
▁worthy	-11.3366
ola	-11.3367
▁Coach	-11.337
Con	-11.337
▁graduates	-11.3371
▁glory	-11.3375
▁warehouse	-11.3375
▁surprises	-11.3376
▁conjunction	-11.3378
▁sudden	-11.3381
▁Major	-11.3381
ker	-11.3382
▁strengths	-11.3385
21	-11.3385
▁baked	-11.339
▁voltage	-11.3391
▁abstract	-11.3393
▁WA	-11.3393
▁bonds	-11.3396
▁informative	-11.3398
port	-11.3398
▁Often	-11.34
▁Total	-11.3402
▁exams	-11.3403
▁costume	-11.3404
▁DO	-11.3404
▁Moore	-11.3407
▁52	-11.3408
▁cheapest	-11.3408
▁reserves	-11.3409
▁cocktail	-11.3411
▁Eye	-11.3414
▁fabrics	-11.3414
▁serial	-11.3416
▁concluded	-11.3419
▁cozy	-11.3419
▁Staff	-11.3421
▁ingredient	-11.3421
specific	-11.3421
▁tomato	-11.3422
▁queen	-11.3422
▁Mining	-11.3423
-5	-11.3424
▁connectivity	-11.3424
▁Leadership	-11.3425
▁Fun	-11.3427
▁calculated	-11.3428
▁lid	-11.3429
▁cannabis	-11.3429
▁entities	-11.343
▁accurately	-11.3432
▁Arab	-11.3433
▁Pool	-11.3434
▁Jane	-11.3435
▁Mon	-11.3436
Join	-11.3438
▁Sweden	-11.3438
▁receipt	-11.344
▁departure	-11.344
▁Clark	-11.344
▁gluten	-11.3442
▁Mix	-11.3444
▁Audio	-11.3446
▁Chamber	-11.3448
▁mesh	-11.3448
▁Brooklyn	-11.3451
▁strain	-11.3453
▁GA	-11.3453
▁sponsor	-11.3453
▁vegan	-11.3454
▁Common	-11.346
▁Language	-11.3462
▁2020	-11.3464
mer	-11.3467
▁executives	-11.3468
▁$3	-11.3473
▁needing	-11.3473
▁Hawaii	-11.3474
type	-11.3474
▁glue	-11.3475
▁Pat	-11.3475
▁throwing	-11.3478
▁smoothly	-11.348
▁Anna	-11.3481
▁retreat	-11.3481
▁restricted	-11.3483
▁conducting	-11.3483
▁charter	-11.3484
▁honestly	-11.3488
▁coin	-11.349
▁Doctor	-11.3491
▁encourages	-11.3492
▁8,	-11.3493
▁arrest	-11.3493
▁Boy	-11.3499
▁tasting	-11.35
ze	-11.35
▁j	-11.3503
▁Gulf	-11.3504
▁fired	-11.3504
▁patience	-11.3505
▁font	-11.3507
▁permits	-11.3508
▁renewable	-11.3515
▁Maria	-11.3518
▁convinced	-11.3519
▁receives	-11.3521
link	-11.3523
▁stolen	-11.3528
▁Index	-11.3532
▁Shipping	-11.3532
▁magazines	-11.3532
▁le	-11.3533
▁Ever	-11.3534
▁hospitality	-11.3539
▁drum	-11.3539
▁friendship	-11.354
▁jail	-11.354
▁barrier	-11.3541
▁achievements	-11.3542
▁stamp	-11.3545
▁complement	-11.3547
▁10,000	-11.3548
▁Culture	-11.355
▁MI	-11.355
▁bits	-11.3552
!).	-11.3554
▁Corporate	-11.3557
▁symbols	-11.3558
Sometimes	-11.3559
▁thrilled	-11.3559
▁destroy	-11.3566
▁quit	-11.357
▁tray	-11.3571
screen	-11.3572
▁Feel	-11.3572
▁winds	-11.3574
▁magnetic	-11.3575
que	-11.3578
Want	-11.3579
▁Dean	-11.3581
▁Whatever	-11.3582
▁organised	-11.3583
▁Bath	-11.3584
▁Visual	-11.3585
▁folk	-11.3588
▁(2)	-11.3589
tion	-11.3592
▁curtain	-11.3597
▁Indonesia	-11.3598
ov	-11.36
▁tuned	-11.3601
▁weekends	-11.3605
▁loyalty	-11.3608
▁synthetic	-11.3608
▁47	-11.3608
▁functioning	-11.3609
▁thinks	-11.3609
▁Organization	-11.3611
▁Further	-11.3612
▁blade	-11.3613
▁$50	-11.3615
|	-11.3615
▁Diamond	-11.3618
▁fails	-11.3621
▁regime	-11.3622
▁headquarters	-11.3623
low	-11.3626
▁DE	-11.3626
▁interpretation	-11.3629
▁counsel	-11.3629
▁des	-11.363
▁der	-11.363
▁Del	-11.3631
▁fundraising	-11.3635
▁passage	-11.3636
▁adjacent	-11.3638
▁reservation	-11.364
▁niche	-11.364
▁NYC	-11.3643
▁eastern	-11.3645
▁se	-11.3647
bed	-11.3648
▁bugs	-11.3648
▁beta	-11.3649
▁Cool	-11.3653
▁belong	-11.3659
▁poll	-11.3659
▁Intel	-11.3659
▁practicing	-11.3661
▁transformed	-11.3661
chi	-11.3661
ising	-11.3665
▁microwave	-11.3665
▁affecting	-11.3665
▁rounds	-11.3665
▁Junior	-11.3671
▁cyber	-11.3674
▁branding	-11.3674
▁tent	-11.3676
▁epic	-11.368
▁undergraduate	-11.3691
▁Bluetooth	-11.3693
▁compromise	-11.3693
▁hungry	-11.3697
dy	-11.3699
▁drawings	-11.3699
▁vessel	-11.3699
▁Entertainment	-11.37
▁significance	-11.37
Back	-11.3702
▁generating	-11.3702
▁underneath	-11.3702
▁surroundings	-11.3704
▁bake	-11.3705
▁Empire	-11.3706
▁outlets	-11.3707
war	-11.3708
▁gel	-11.371
▁Ridge	-11.3711
▁horror	-11.3712
▁minerals	-11.3712
▁thirty	-11.3713
▁trademark	-11.3717
▁ethical	-11.3718
effective	-11.3722
▁Sweet	-11.3723
▁toxic	-11.3724
▁Dead	-11.3726
70	-11.3733
▁obtaining	-11.3733
▁%	-11.3739
▁dramatically	-11.3741
▁pose	-11.3742
▁Labor	-11.3744
Meanwhile	-11.3745
▁IBM	-11.3746
▁structured	-11.3747
▁failing	-11.3751
▁trauma	-11.3753
▁Switzerland	-11.3755
▁Images	-11.3756
▁Corp	-11.3756
▁11,	-11.3762
▁heal	-11.3764
Students	-11.3765
non	-11.3767
▁Pack	-11.3767
▁dropping	-11.3769
▁Dad	-11.3774
▁derived	-11.3777
▁dial	-11.3779
▁ranks	-11.3781
▁teens	-11.3784
▁Grade	-11.3786
▁barriers	-11.3787
▁outline	-11.3788
▁rewarding	-11.379
rate	-11.379
▁Events	-11.3791
now	-11.3792
▁ruling	-11.3793
▁Alaska	-11.3794
▁newer	-11.38
About	-11.3801
▁Ko	-11.3802
▁THIS	-11.3803
▁specializes	-11.3805
▁Salt	-11.3805
▁differ	-11.3808
▁accent	-11.3809
▁mounting	-11.3811
▁sq	-11.3815
Day	-11.3818
▁handmade	-11.3819
▁dimension	-11.3821
▁attempted	-11.3822
▁Lo	-11.3828
▁armed	-11.3833
▁Dining	-11.3834
▁concentrate	-11.3834
▁dig	-11.3835
▁marble	-11.3836
▁offensive	-11.3839
▁6,	-11.384
▁organizing	-11.3841
▁Getting	-11.3841
▁Harvard	-11.3842
▁gene	-11.3844
▁Ross	-11.3844
▁promising	-11.3845
▁RSS	-11.3846
▁roller	-11.3846
▁bin	-11.3851
▁Costa	-11.3851
get	-11.3853
▁rides	-11.3853
▁Rob	-11.3854
▁appliance	-11.3855
▁Partners	-11.3855
▁Designs	-11.3855
▁determining	-11.3864
▁SE	-11.3864
▁substitute	-11.3864
▁pipes	-11.3864
▁Du	-11.387
ping	-11.3872
▁Mumbai	-11.3877
▁upset	-11.3879
▁travelers	-11.388
▁bikes	-11.388
▁farming	-11.388
▁viagra	-11.3882
▁buses	-11.3882
▁Edge	-11.3883
▁courtesy	-11.3884
35	-11.3889
▁conscious	-11.389
▁Inside	-11.3891
▁Rev	-11.3893
▁assignments	-11.3893
ities	-11.3895
▁Investment	-11.3895
▁Phil	-11.3896
store	-11.3896
▁rolls	-11.3899
▁attributes	-11.39
▁Really	-11.3903
▁vocal	-11.3904
ware	-11.3905
▁towel	-11.3908
▁separation	-11.3908
▁clay	-11.3909
▁Su	-11.3909
▁sporting	-11.391
ball	-11.3911
▁Kate	-11.3911
▁Alexander	-11.3913
▁Player	-11.3914
▁smartphones	-11.3918
▁Convention	-11.3919
▁implications	-11.3923
▁Chrome	-11.3923
▁riders	-11.3926
▁Window	-11.3927
Being	-11.3934
▁respected	-11.3937
▁wage	-11.3938
▁harsh	-11.3939
▁inviting	-11.3939
▁praise	-11.3939
▁Base	-11.394
▁Remove	-11.3942
▁Rather	-11.3942
▁Driver	-11.3942
▁angry	-11.3942
▁motorcycle	-11.3943
ial	-11.3943
▁Sure	-11.3944
▁anybody	-11.3949
▁fold	-11.3951
▁restored	-11.3953
▁perception	-11.3956
stop	-11.396
▁Andy	-11.3963
▁RV	-11.3966
▁Technologies	-11.3969
▁intensity	-11.3969
▁coating	-11.397
▁ME	-11.3971
▁da	-11.3976
▁mainstream	-11.3979
▁freely	-11.398
▁reflected	-11.398
▁Birthday	-11.3982
▁crossing	-11.3983
▁consist	-11.3983
▁Captain	-11.3983
▁handed	-11.3985
Un	-11.3985
cut	-11.3992
shirt	-11.3992
▁triple	-11.3993
▁adjusted	-11.3994
▁Premium	-11.3995
ho	-11.3998
▁Luke	-11.4
▁cure	-11.4
ron	-11.4
▁flip	-11.4002
▁Battle	-11.4003
▁separated	-11.4004
Based	-11.4004
▁thankful	-11.4006
▁gonna	-11.4007
▁uniform	-11.401
▁Several	-11.4011
iness	-11.4011
▁tends	-11.4013
▁inclusion	-11.4014
▁cosmetic	-11.4017
▁assists	-11.4019
white	-11.402
▁dying	-11.4022
▁debris	-11.4025
▁180	-11.4025
▁draws	-11.4027
▁drill	-11.4027
▁leisure	-11.4028
▁transparency	-11.4028
▁13,	-11.403
1,	-11.403
▁bow	-11.403
▁governance	-11.4031
▁ports	-11.4033
▁wings	-11.4034
▁Safe	-11.4035
▁wardrobe	-11.4035
▁longest	-11.4035
▁Deep	-11.4036
▁wool	-11.4043
▁cement	-11.4048
▁repeated	-11.4057
▁query	-11.406
▁presidential	-11.4066
▁terrace	-11.4068
▁suicide	-11.4069
▁advisor	-11.4069
commerce	-11.4069
Tech	-11.4069
▁legitimate	-11.4071
▁gross	-11.4072
▁inexpensive	-11.4074
▁Mi	-11.4077
▁span	-11.4077
about	-11.4077
▁Roll	-11.4078
▁hills	-11.4079
▁confusion	-11.408
▁appointments	-11.4082
▁centres	-11.4082
Welcome	-11.4084
▁palm	-11.4085
▁accordingly	-11.4086
▁Commerce	-11.4088
Watch	-11.4089
play	-11.4091
-20	-11.4092
▁acknowledge	-11.4094
▁recycled	-11.4097
▁renovation	-11.4097
▁cooler	-11.41
▁steering	-11.4101
▁partial	-11.4102
▁mat	-11.4105
▁dont	-11.4106
▁Parliament	-11.4107
▁Cost	-11.4111
▁Edward	-11.4112
▁consultants	-11.4117
▁neat	-11.4119
▁lying	-11.412
▁independently	-11.4123
▁Pi	-11.4124
▁sooner	-11.4127
IT	-11.4129
▁Mail	-11.4132
▁warmth	-11.4133
▁meter	-11.4133
▁loyal	-11.4135
▁Third	-11.4136
▁alter	-11.4139
▁Grace	-11.4145
Open	-11.4146
▁creatures	-11.4147
▁Pa	-11.4151
▁Movie	-11.4152
▁sisters	-11.4154
▁trains	-11.4155
▁Region	-11.4157
▁reactions	-11.4157
ating	-11.4158
▁Adobe	-11.4159
▁pupils	-11.416
▁2008.	-11.4161
▁locks	-11.4162
Previous	-11.4164
▁poem	-11.4166
▁Barcelona	-11.4167
▁seniors	-11.4171
▁(3	-11.4172
!!!!	-11.4174
▁AS	-11.4176
▁trainer	-11.4179
▁slice	-11.418
▁shadow	-11.4185
pe	-11.4186
some	-11.4189
▁browsing	-11.4189
300	-11.419
▁pine	-11.419
▁picks	-11.4191
Hey	-11.4191
▁Century	-11.4191
▁dispute	-11.4196
▁predict	-11.42
▁Original	-11.4202
▁Charlotte	-11.4202
▁nails	-11.4203
▁Associates	-11.4203
Black	-11.4205
▁Bus	-11.4206
▁Gray	-11.421
▁architect	-11.421
▁searches	-11.4211
▁inclusive	-11.4213
▁lean	-11.4213
▁silent	-11.4214
▁deemed	-11.4214
▁pressing	-11.4217
▁enemies	-11.4219
▁deployment	-11.4219
▁forming	-11.4219
▁obligations	-11.422
▁destruction	-11.4223
▁introducing	-11.4224
▁sacrifice	-11.4236
▁19,	-11.4237
▁promotions	-11.4237
key	-11.424
▁Antonio	-11.4243
▁Final	-11.4244
▁Oracle	-11.4245
AP	-11.4245
▁thereby	-11.4249
▁profitable	-11.425
▁jeans	-11.425
Net	-11.4253
▁inflation	-11.4254
▁Discover	-11.4257
▁15,	-11.4259
▁schemes	-11.4259
▁SD	-11.4259
▁flows	-11.426
▁Prior	-11.426
▁uncomfortable	-11.4264
born	-11.427
▁logistics	-11.4271
▁curtains	-11.4274
▁BMW	-11.4274
▁evolved	-11.4276
▁booth	-11.4278
▁lenders	-11.4279
▁anger	-11.428
▁unwanted	-11.4282
▁lightly	-11.4285
▁humanity	-11.4286
▁welfare	-11.4287
▁occasional	-11.4289
▁targeting	-11.4289
▁pumpkin	-11.429
▁pays	-11.4291
si	-11.4292
▁eager	-11.4292
▁metres	-11.4297
▁potato	-11.4297
▁RAM	-11.4298
▁24/7	-11.4299
▁topped	-11.43
▁survived	-11.4301
▁Tokyo	-11.4302
▁Nice	-11.4302
▁shoulders	-11.4303
▁22,	-11.4303
▁Six	-11.4308
▁Environment	-11.431
▁tuition	-11.4313
▁updating	-11.4314
ella	-11.4317
▁pools	-11.4318
▁clever	-11.4318
▁Years	-11.4319
▁momentum	-11.4319
▁Defense	-11.4325
▁rustic	-11.4326
▁trans	-11.4327
▁85	-11.4328
▁lining	-11.4329
▁Associate	-11.433
▁inflammation	-11.4331
▁forums	-11.4339
▁valley	-11.4339
▁Gardens	-11.4342
▁lender	-11.4342
▁Bi	-11.4342
▁mandatory	-11.4346
▁elite	-11.4347
Wow	-11.4352
▁albums	-11.4358
▁bacon	-11.4358
▁emerged	-11.4362
▁Days	-11.4364
▁diesel	-11.4364
▁algorithm	-11.4365
▁execute	-11.4365
▁ranges	-11.4367
▁Pink	-11.4367
▁pipeline	-11.4372
▁Yellow	-11.4377
▁31,	-11.4379
▁avoiding	-11.4383
ik	-11.4383
▁fur	-11.4385
▁judges	-11.4385
▁Song	-11.4391
▁besides	-11.4392
▁Republicans	-11.4392
▁surveys	-11.4392
▁stressed	-11.4393
▁vessels	-11.4396
▁Netflix	-11.4401
▁wheat	-11.4401
Unfortunately	-11.4402
▁practitioners	-11.4402
▁im	-11.4405
▁promptly	-11.4406
▁paired	-11.4407
your	-11.441
▁imaging	-11.4413
▁companion	-11.4414
▁experimental	-11.4415
have	-11.4416
▁installations	-11.4423
ck	-11.4427
▁margin	-11.443
▁dip	-11.4432
▁Death	-11.4432
▁Animal	-11.4433
▁silk	-11.4434
▁Khan	-11.4434
▁romance	-11.4434
▁resist	-11.4434
▁fears	-11.4435
▁Howard	-11.4435
▁texts	-11.4436
▁subscribe	-11.444
▁attach	-11.444
▁ecosystem	-11.4443
Following	-11.4444
best	-11.4445
▁resolved	-11.4446
▁conservative	-11.4447
dale	-11.4448
▁Grey	-11.4449
there	-11.4451
▁30%	-11.4454
Remember	-11.4455
▁Hamilton	-11.4458
▁Bear	-11.446
▁troops	-11.4464
▁sellers	-11.4466
▁politicians	-11.4468
▁18,	-11.4471
▁surprisingly	-11.4478
▁pursuing	-11.4479
▁Ukraine	-11.4482
▁scenarios	-11.4483
▁Crystal	-11.4487
▁planted	-11.4488
▁spine	-11.4489
where	-11.4489
▁attraction	-11.4489
kg	-11.4491
▁migration	-11.4492
▁counts	-11.4493
▁rejected	-11.4494
▁lip	-11.4496
▁backing	-11.4499
▁radiation	-11.4504
▁Francis	-11.4506
▁wholesale	-11.451
▁chemistry	-11.4513
▁enthusiasm	-11.4515
yl	-11.4516
▁preview	-11.4517
edge	-11.4517
▁theft	-11.4518
10.	-11.4518
▁1950	-11.4519
▁NBA	-11.452
▁wallet	-11.452
CO	-11.4523
▁jet	-11.4524
vi	-11.4524
▁abandoned	-11.4525
▁adjustments	-11.4526
cost	-11.4526
▁28,	-11.4528
▁varying	-11.453
▁citizen	-11.4531
▁biological	-11.4532
▁twelve	-11.4532
▁spell	-11.4535
▁organizational	-11.4535
▁21,	-11.4536
▁curve	-11.4538
▁thrive	-11.4539
▁squad	-11.4539
▁stairs	-11.454
▁indicator	-11.4542
▁Terms	-11.4543
▁villages	-11.4544
▁reportedly	-11.4546
▁EP	-11.4549
▁Photography	-11.455
▁broader	-11.4551
2,	-11.4553
▁billing	-11.4553
▁17,	-11.4555
▁24-	-11.4556
▁vitamins	-11.4557
▁Poland	-11.4558
▁packs	-11.4558
▁lane	-11.4559
▁23,	-11.4564
▁Therapy	-11.4565
Through	-11.4569
▁snap	-11.4569
▁Architecture	-11.457
▁Process	-11.457
▁fought	-11.457
St	-11.457
▁checkout	-11.4571
▁2009,	-11.4571
▁UV	-11.4572
▁prospect	-11.4573
▁30-	-11.4573
▁attracted	-11.4574
▁Rich	-11.4575
ara	-11.4577
▁Jon	-11.4578
▁icons	-11.458
▁Gary	-11.4582
▁shame	-11.4585
▁pub	-11.4585
▁static	-11.4585
▁strictly	-11.4586
▁Orleans	-11.4586
▁unlock	-11.4586
▁violation	-11.4587
▁Connect	-11.4587
▁breach	-11.4588
▁legally	-11.4589
▁2008,	-11.459
▁scary	-11.4592
▁suggestion	-11.4595
▁dumpster	-11.4597
▁recreational	-11.46
AM	-11.46
▁Ron	-11.46
▁bucket	-11.4601
▁tongue	-11.4601
▁Liverpool	-11.4601
▁rehabilitation	-11.4602
▁Dublin	-11.4603
▁cognitive	-11.4604
▁counseling	-11.4604
▁exotic	-11.4605
▁Jose	-11.4605
▁SA	-11.4607
▁Fan	-11.4607
▁upgrades	-11.461
▁distribute	-11.4611
▁prayers	-11.4611
▁variables	-11.4613
▁bronze	-11.4614
▁oz	-11.4616
▁travels	-11.4617
▁retailer	-11.4618
High	-11.4619
▁offline	-11.4619
▁festivals	-11.462
▁physicians	-11.4621
▁$20	-11.4622
▁decorations	-11.463
▁founding	-11.463
▁Va	-11.4631
▁binding	-11.4635
▁drawer	-11.4635
▁Touch	-11.4638
▁Harris	-11.464
Look	-11.464
▁mechanisms	-11.4642
▁steep	-11.4642
▁WiFi	-11.4647
▁timber	-11.4647
▁Suite	-11.4651
▁Sand	-11.4652
90	-11.4653
▁publisher	-11.4654
▁Masters	-11.4655
▁catering	-11.4657
▁closure	-11.4659
▁BBQ	-11.4664
▁criticism	-11.4666
ru	-11.4667
▁54	-11.4668
▁CBD	-11.4669
▁HVAC	-11.467
▁SQL	-11.4673
▁Native	-11.4675
▁Rick	-11.468
▁reset	-11.468
▁FDA	-11.4685
▁courage	-11.4685
king	-11.4691
▁adapted	-11.4692
▁Cleveland	-11.4693
▁Throughout	-11.4695
▁chamber	-11.4698
▁corporation	-11.4698
▁literary	-11.47
▁infections	-11.4701
▁chic	-11.4702
▁recognised	-11.4703
▁tv	-11.4707
▁suspended	-11.4708
▁cry	-11.4711
▁Enter	-11.4712
▁stressful	-11.4712
▁consume	-11.4715
▁Jazz	-11.4716
▁defence	-11.4717
")	-11.4717
▁seamless	-11.4718
▁volumes	-11.4719
▁notable	-11.472
▁14,	-11.4724
▁Louisiana	-11.4728
▁Ram	-11.473
▁liable	-11.4733
▁lime	-11.4738
▁MO	-11.4742
ino	-11.4745
▁silence	-11.4746
▁Independent	-11.4747
▁complications	-11.4748
▁harvest	-11.4757
▁Federation	-11.4757
▁Could	-11.4758
▁construct	-11.4759
▁shake	-11.476
▁sons	-11.4766
▁executed	-11.4768
▁secrets	-11.477
gate	-11.477
ette	-11.4771
▁intensive	-11.4771
▁Duration	-11.4771
▁na	-11.4771
▁catalog	-11.4773
▁specify	-11.4774
▁calculate	-11.4779
▁royal	-11.4783
▁Cheap	-11.4785
▁diving	-11.4786
▁Clinic	-11.4787
▁reminds	-11.4799
▁particles	-11.4801
▁explaining	-11.4802
▁hardwood	-11.4802
▁terrain	-11.4803
aka	-11.4803
▁touches	-11.4804
▁variation	-11.4806
most	-11.481
▁arriving	-11.4819
▁psychology	-11.482
▁declined	-11.4822
▁manages	-11.4823
▁pros	-11.4825
▁contacting	-11.4828
▁Guard	-11.4829
▁Housing	-11.4829
▁Wind	-11.4838
ata	-11.4839
▁blanket	-11.4839
▁Anyone	-11.4841
▁Clear	-11.4845
▁Kings	-11.4847
▁Heat	-11.485
▁backgrounds	-11.4851
▁blockchain	-11.4852
▁Bird	-11.4852
▁insured	-11.4854
▁planting	-11.4855
▁Alan	-11.4858
▁Additional	-11.4859
▁duo	-11.486
▁95	-11.4861
ut	-11.4862
▁Par	-11.4865
▁rentals	-11.4867
▁Justin	-11.4868
▁matched	-11.487
name	-11.4874
tel	-11.4874
read	-11.4874
OS	-11.4877
Posted	-11.4879
▁consisting	-11.4881
Copyright	-11.4883
▁Active	-11.4885
▁regarded	-11.4887
▁skirt	-11.4888
▁enrolled	-11.4888
▁refuse	-11.4891
▁mis	-11.4891
▁transfers	-11.4894
▁lbs	-11.4894
▁improves	-11.4896
face	-11.4897
▁abundance	-11.4905
▁puzzle	-11.4907
▁Snow	-11.491
▁syrup	-11.4912
▁51	-11.4915
▁Dragon	-11.4915
▁Ke	-11.4915
▁remembered	-11.4919
▁referring	-11.4919
▁Upon	-11.4932
▁stove	-11.4937
▁widespread	-11.4939
▁athletic	-11.4939
▁fried	-11.494
▁adjustment	-11.4942
▁Leather	-11.4942
▁classified	-11.4946
ig	-11.4947
▁treasure	-11.4949
▁suppose	-11.495
▁Jennifer	-11.495
▁actress	-11.4951
▁lifting	-11.4951
▁Race	-11.4954
▁sells	-11.4959
▁joints	-11.496
ai	-11.4963
▁experiments	-11.4964
▁16,	-11.4965
▁dealers	-11.4968
▁humor	-11.497
▁specialize	-11.4972
▁cakes	-11.4974
ran	-11.4974
▁junk	-11.498
fish	-11.498
▁linear	-11.4983
hr	-11.4984
▁Garage	-11.4985
▁chapters	-11.4989
▁Universal	-11.499
▁brake	-11.499
▁spice	-11.499
▁Tool	-11.4993
▁challenged	-11.4994
▁AP	-11.4994
▁consuming	-11.4996
▁Walker	-11.4996
▁polished	-11.4998
▁casinos	-11.4999
▁vanity	-11.5004
▁cottage	-11.5006
▁Leave	-11.5006
▁pairs	-11.5008
▁3.5	-11.501
▁catching	-11.5011
▁proprietary	-11.5013
▁buried	-11.5013
ent	-11.5014
▁Fe	-11.5014
Life	-11.5017
▁fortunate	-11.5018
▁Canon	-11.5022
▁iTunes	-11.5023
Though	-11.5024
▁sunlight	-11.5024
▁upgraded	-11.5024
▁scenery	-11.5025
▁analysts	-11.5026
▁deserves	-11.5029
▁balcony	-11.5029
▁scent	-11.503
▁holders	-11.5031
MB	-11.5032
▁flavour	-11.5033
▁Bruce	-11.5035
▁democracy	-11.5035
▁saves	-11.5036
Mo	-11.5046
▁jumping	-11.5047
00	-11.5051
▁Amy	-11.5051
▁Delta	-11.5052
▁eBay	-11.5054
Start	-11.5054
▁generator	-11.5055
▁claiming	-11.5056
yes	-11.5056
▁Hello	-11.5056
▁Editor	-11.5057
▁nationally	-11.5058
▁Lodge	-11.506
▁optical	-11.5061
-8	-11.5064
▁realise	-11.5064
▁1999	-11.5068
▁submitting	-11.5068
▁GM	-11.5069
▁Chicken	-11.507
▁enterprises	-11.5071
▁sliding	-11.5072
▁cope	-11.5073
22	-11.5075
▁negotiations	-11.5077
▁therapeutic	-11.5086
▁Degree	-11.509
▁revolution	-11.509
▁Villa	-11.5091
.....	-11.5092
▁Jobs	-11.5093
after	-11.5095
Place	-11.5099
▁Mediterranean	-11.5099
▁warned	-11.51
▁Organic	-11.5101
▁Usually	-11.5103
▁educated	-11.5103
▁sponsors	-11.5103
▁accredited	-11.5104
▁hack	-11.5107
▁circulation	-11.5108
▁Duke	-11.5109
pin	-11.511
▁Rep	-11.5111
▁sustained	-11.5112
PS	-11.5114
▁creamy	-11.5114
▁Soft	-11.5115
▁Ch	-11.5115
ez	-11.5115
▁depot	-11.5116
▁portrait	-11.5117
▁Rd	-11.5118
▁Tell	-11.5118
▁satisfying	-11.5119
▁crimes	-11.5122
▁mailing	-11.5123
▁GB	-11.5124
▁Range	-11.5124
▁gauge	-11.5125
▁Tickets	-11.5126
?!	-11.5131
▁zones	-11.5132
click	-11.5132
▁traveled	-11.5133
▁associations	-11.5134
▁Charlie	-11.5135
▁confidential	-11.5135
▁nurses	-11.5135
▁violent	-11.5136
▁populations	-11.5136
▁jam	-11.5148
▁Laura	-11.5149
▁Ni	-11.5151
▁Build	-11.5153
▁Birmingham	-11.5155
▁Hunter	-11.5156
▁porch	-11.5163
▁convention	-11.5165
vo	-11.5169
▁Lisa	-11.517
▁combinations	-11.517
also	-11.5172
▁translate	-11.5172
▁5%	-11.5173
▁retention	-11.5173
▁nerve	-11.5175
▁goodness	-11.5176
▁boil	-11.5178
OR	-11.5181
▁Rio	-11.5181
▁promoted	-11.5182
▁assault	-11.5182
▁ABC	-11.5183
▁privilege	-11.5185
▁Nelson	-11.5186
Book	-11.5186
▁Parts	-11.5186
▁modeling	-11.5186
▁lineup	-11.5187
▁emotion	-11.5189
▁circles	-11.519
▁sunset	-11.5192
▁enhancing	-11.5194
▁explores	-11.5194
▁tanks	-11.5195
Maybe	-11.5196
▁leak	-11.5198
▁CV	-11.5199
()	-11.5202
▁Factory	-11.5206
▁modes	-11.5206
▁compound	-11.5207
▁Especially	-11.5209
▁cargo	-11.5209
▁mi	-11.521
▁max	-11.5214
html	-11.5214
▁Eve	-11.5214
ab	-11.5215
▁Meanwhile	-11.5216
▁Emergency	-11.5218
▁Depending	-11.522
▁downloading	-11.5222
▁mentor	-11.5224
▁isolated	-11.5224
▁Opera	-11.523
▁Zone	-11.5231
tic	-11.5232
▁ample	-11.5233
▁guns	-11.5236
▁alternate	-11.5238
▁summit	-11.524
▁coupled	-11.5241
ung	-11.5241
▁god	-11.5244
▁Connecticut	-11.5244
▁Value	-11.5248
▁reasonably	-11.5251
▁Ring	-11.5251
▁Nike	-11.5252
▁mirrors	-11.5253
▁arguments	-11.5258
▁tenants	-11.5259
▁connects	-11.526
ii	-11.5263
▁elementary	-11.5267
▁700	-11.5269
▁Nevada	-11.5271
▁Shower	-11.5272
▁pumps	-11.5273
▁Manhattan	-11.5274
▁beating	-11.5275
▁rod	-11.5278
▁Register	-11.528
▁clearance	-11.5281
▁scheduling	-11.5285
▁optimize	-11.5286
▁annoying	-11.5288
Enjoy	-11.5293
▁keyword	-11.5294
▁dis	-11.5294
▁tailor	-11.5295
500	-11.5296
▁mothers	-11.5298
▁Primary	-11.5298
▁tricky	-11.5298
cc	-11.5301
▁Details	-11.5302
tz	-11.5302
▁sturdy	-11.5305
God	-11.5306
▁notified	-11.5307
▁Screen	-11.5311
▁stake	-11.5312
80	-11.5313
▁protest	-11.5314
▁blast	-11.5315
▁borders	-11.5319
▁ruled	-11.5322
▁obstacles	-11.5326
▁Judge	-11.5326
▁(5	-11.5329
▁25%	-11.5333
▁Grove	-11.5334
Save	-11.5338
ff	-11.5339
▁robot	-11.5343
▁therapist	-11.5346
▁pharmacy	-11.5347
ver	-11.5353
▁approached	-11.5353
▁Sen	-11.5353
▁Dakota	-11.5354
▁maintains	-11.5354
▁hop	-11.5354
▁sensitivity	-11.5356
▁365	-11.5357
▁extensions	-11.5359
▁wore	-11.5359
▁promotes	-11.536
▁Later	-11.5362
▁Ex	-11.5365
▁56	-11.5365
▁9,	-11.5366
▁26,	-11.5366
▁tribute	-11.5372
▁shore	-11.5372
▁mysterious	-11.5372
▁diagnostic	-11.5373
▁Afghanistan	-11.5373
▁Pick	-11.5373
zi	-11.5375
ning	-11.5376
▁struggles	-11.5376
▁collar	-11.5377
▁repeatedly	-11.5381
▁80%	-11.5382
▁receiver	-11.5383
oh	-11.5385
▁pest	-11.5387
▁controlling	-11.5389
▁forgot	-11.539
▁autumn	-11.539
▁Greg	-11.5392
▁picnic	-11.5393
ml	-11.5393
▁Amazing	-11.5393
▁schedules	-11.5396
▁museums	-11.5396
▁warming	-11.5399
▁exhaust	-11.5399
▁daughters	-11.5399
▁Installation	-11.5402
▁homeless	-11.5408
▁darkness	-11.541
▁Decor	-11.5411
part	-11.5414
▁sailing	-11.5418
Set	-11.542
▁acids	-11.5422
▁releasing	-11.5423
oriented	-11.5425
▁53	-11.5427
▁assure	-11.5432
▁Bag	-11.5433
▁jumped	-11.5435
**	-11.5436
▁tactics	-11.5437
▁Trans	-11.5438
▁deleted	-11.5439
ria	-11.5439
▁delightful	-11.544
▁Weight	-11.5442
▁Results	-11.5442
▁ambitious	-11.5444
▁Freedom	-11.5445
▁drew	-11.5445
▁outlook	-11.5446
▁woods	-11.5446
▁1-	-11.5447
▁protects	-11.5448
▁intuitive	-11.5449
▁Lead	-11.5451
▁physics	-11.5452
▁gaps	-11.5453
▁crossed	-11.5455
▁watches	-11.5455
▁Directors	-11.5459
▁pile	-11.546
▁counties	-11.5464
▁arrives	-11.5467
▁sake	-11.5467
▁Jonathan	-11.5468
▁guarantees	-11.5469
▁Baltimore	-11.5469
▁secretary	-11.547
▁lips	-11.547
▁para	-11.547
▁27,	-11.5475
▁desires	-11.5476
▁seafood	-11.5477
▁Consider	-11.5478
▁Greater	-11.5481
▁Xbox	-11.5481
▁syndrome	-11.5483
▁corruption	-11.5483
▁editorial	-11.5484
▁Madison	-11.5485
▁gloves	-11.5486
▁Half	-11.5488
▁Mall	-11.549
▁pond	-11.549
▁Tools	-11.5491
Come	-11.5492
▁Vision	-11.5493
▁Sa	-11.5493
▁jury	-11.5495
▁WITH	-11.5496
▁touched	-11.5499
▁opponent	-11.55
▁firmly	-11.55
▁freezer	-11.5502
▁styling	-11.5503
▁barrel	-11.5503
▁supervision	-11.5506
Visit	-11.5507
gar	-11.5508
▁applicant	-11.5508
▁phenomenon	-11.5509
ated	-11.5509
▁afterwards	-11.551
▁switching	-11.5511
▁Orlando	-11.5512
▁Version	-11.5513
real	-11.5514
▁Overall	-11.5514
▁quilt	-11.5514
▁drying	-11.5515
▁dissertation	-11.5516
▁prevents	-11.5519
▁Mt	-11.5522
grade	-11.5522
▁IV	-11.5524
▁1:	-11.5524
▁Moscow	-11.5525
▁stepped	-11.553
▁entrepreneur	-11.5531
▁Kent	-11.5531
▁decreased	-11.5531
▁weddings	-11.5533
▁Choice	-11.5536
▁legend	-11.5536
▁jewellery	-11.5537
▁understands	-11.5539
▁Resource	-11.5541
▁reviewing	-11.5543
▁cables	-11.5545
▁killer	-11.5548
▁rally	-11.5551
▁confusing	-11.5552
▁methodology	-11.5553
▁frustrating	-11.5558
bi	-11.5558
▁Susan	-11.5559
▁pension	-11.556
▁Target	-11.5565
▁finances	-11.5566
mann	-11.5567
▁alignment	-11.5569
▁educators	-11.5571
▁oh	-11.5572
▁teen	-11.5573
▁jar	-11.5577
▁99	-11.5578
▁Analytics	-11.5579
▁revenues	-11.5579
▁bride	-11.558
▁uncertainty	-11.558
▁consolidation	-11.5584
▁mod	-11.5587
will	-11.5589
ano	-11.559
▁boiler	-11.5592
mon	-11.5593
▁disciplines	-11.5596
ani	-11.5597
▁relatives	-11.56
▁photographers	-11.5603
▁governor	-11.5605
▁66	-11.561
▁Mind	-11.5612
▁gardening	-11.5612
▁occupied	-11.5616
..."	-11.5617
01	-11.5617
▁Med	-11.5617
▁musician	-11.5624
han	-11.5624
▁mapping	-11.5626
▁assumed	-11.5626
▁Tan	-11.5627
▁animated	-11.5628
▁Send	-11.5629
▁flowing	-11.5629
▁journalist	-11.5631
▁facebook	-11.5632
▁fatigue	-11.5633
▁proceeds	-11.5634
▁lover	-11.5635
▁cherry	-11.5637
▁Cream	-11.5639
▁concerts	-11.564
ries	-11.5641
▁traders	-11.5641
▁Yu	-11.5642
▁households	-11.5645
▁Operations	-11.5647
▁approaching	-11.565
▁Clinical	-11.5654
▁influences	-11.5654
▁runner	-11.5654
▁Communication	-11.5657
▁mere	-11.5659
▁tunnel	-11.5665
▁behaviors	-11.567
▁struggled	-11.5673
-6	-11.5677
▁Glen	-11.5678
▁delays	-11.5679
▁Given	-11.568
▁sweat	-11.5681
▁Craig	-11.5682
under	-11.5682
▁IRS	-11.5684
▁Transportation	-11.5685
▁pixels	-11.5686
▁Barbara	-11.5687
▁Beijing	-11.5689
Should	-11.5692
ura	-11.5692
▁crafts	-11.5694
▁Ga	-11.5699
▁streams	-11.5702
▁galleries	-11.5703
NET	-11.5703
▁12-	-11.5704
▁SP	-11.5705
▁quicker	-11.5706
▁turkey	-11.5706
ach	-11.5707
▁Lighting	-11.5709
▁automobile	-11.5711
▁farms	-11.5714
▁freeze	-11.5714
▁lit	-11.5716
▁Face	-11.5719
▁forests	-11.5719
▁poly	-11.5719
▁Swedish	-11.5721
▁excel	-11.5721
▁101	-11.5722
▁Baker	-11.5723
Would	-11.5723
▁positioned	-11.5727
▁subsequently	-11.5729
▁learners	-11.5729
▁1998	-11.5732
▁Chef	-11.5733
▁spicy	-11.5735
▁Josh	-11.5735
▁dynamics	-11.5735
▁Jews	-11.5737
▁simpler	-11.5738
▁Thompson	-11.5739
▁proceedings	-11.5739
▁landscaping	-11.5739
▁illustrations	-11.574
▁:)	-11.5746
▁Ca	-11.5748
▁breed	-11.575
▁crops	-11.5752
green	-11.5752
▁2-3	-11.5752
▁Text	-11.5753
space	-11.5754
▁deposits	-11.5756
▁Production	-11.5758
▁Reserved	-11.5758
▁controversial	-11.5761
▁hoped	-11.5762
▁Hence	-11.5764
▁lending	-11.5765
▁neighborhoods	-11.5768
▁cluster	-11.5768
04	-11.5771
▁Impact	-11.5771
▁Drug	-11.5778
▁hood	-11.578
▁110	-11.578
▁licensing	-11.5781
▁surveillance	-11.5782
▁spreading	-11.5783
▁perspectives	-11.5785
▁prep	-11.5788
info	-11.5792
▁likewise	-11.5792
▁horizontal	-11.5795
▁custody	-11.5798
▁gay	-11.5799
▁Pittsburgh	-11.5801
▁Pictures	-11.5802
▁captain	-11.5802
▁notify	-11.5803
▁lace	-11.5803
▁Ar	-11.5807
▁comparable	-11.5807
▁Blood	-11.5809
▁Registration	-11.5811
▁circular	-11.5812
▁nutritional	-11.5815
▁opponents	-11.5818
▁considerably	-11.582
▁Survey	-11.5821
▁evident	-11.5821
▁strap	-11.5821
▁30,	-11.5825
ren	-11.5827
when	-11.5827
▁carriers	-11.5829
▁Chocolate	-11.5831
▁Victorian	-11.5832
▁metrics	-11.5834
▁spices	-11.5835
▁mad	-11.5836
▁Transfer	-11.5839
▁Canyon	-11.5845
▁clips	-11.5845
dis	-11.5848
▁undertaking	-11.5851
▁castle	-11.5851
▁Nursing	-11.5852
▁innovations	-11.5852
▁react	-11.5853
▁runners	-11.5854
▁sticks	-11.5856
▁monetary	-11.5856
▁supplying	-11.5856
▁Kenya	-11.5856
▁Hopefully	-11.5856
▁12,	-11.5858
▁assessments	-11.5859
▁mud	-11.586
ST	-11.586
▁Block	-11.5862
▁evolving	-11.5863
Top	-11.5863
▁clouds	-11.587
▁thickness	-11.587
▁25,	-11.5871
▁overhead	-11.5873
▁ribbon	-11.5873
▁partially	-11.5874
▁pole	-11.5877
▁Contemporary	-11.5877
▁assisting	-11.5878
▁Mississippi	-11.5882
▁dealt	-11.5882
▁lamps	-11.5884
▁advances	-11.5884
▁dialing	-11.5892
▁Intelligence	-11.5894
▁ignored	-11.5895
▁glow	-11.5895
▁comparing	-11.5897
▁convince	-11.5898
▁urgent	-11.5898
▁comfortably	-11.5901
▁proudly	-11.5903
▁cater	-11.5904
▁Albert	-11.5908
▁Ver	-11.5909
▁environmentally	-11.5913
▁notion	-11.5916
▁(4	-11.5916
▁institutional	-11.5916
▁pickup	-11.5916
▁descriptions	-11.5917
ile	-11.5917
▁coding	-11.5919
▁Eagle	-11.5922
master	-11.5922
▁Delivery	-11.5923
▁sewing	-11.5925
▁Se	-11.5926
▁wax	-11.5927
▁holy	-11.5927
▁Boys	-11.593
▁varies	-11.5931
Buy	-11.5933
▁Gordon	-11.5933
▁Studios	-11.5933
▁participant	-11.5935
▁segments	-11.5938
▁hockey	-11.594
▁Cold	-11.5941
▁cave	-11.5941
▁spotted	-11.5942
▁15%	-11.5944
▁compiled	-11.5948
▁databases	-11.5949
▁bicycle	-11.5952
▁Cabinet	-11.5952
▁Awesome	-11.5952
▁VR	-11.5953
▁encountered	-11.5953
oz	-11.5955
▁AL	-11.5956
▁threw	-11.5956
▁explored	-11.5957
▁simulation	-11.5957
▁excuse	-11.5957
▁Wayne	-11.5957
▁Skin	-11.5958
▁rivers	-11.5959
▁beverage	-11.5962
▁mp	-11.5963
▁lecture	-11.5964
MS	-11.5964
DS	-11.5967
▁advocacy	-11.5968
▁comprised	-11.5974
lock	-11.5978
▁simplicity	-11.5978
▁ethnic	-11.5983
▁Sample	-11.5984
▁radical	-11.5984
▁composite	-11.5986
▁festive	-11.5986
fire	-11.5987
▁Pen	-11.5988
▁chains	-11.5988
▁tones	-11.5989
▁seminar	-11.5992
▁examined	-11.5992
▁sheer	-11.5992
▁cone	-11.5994
▁condo	-11.5996
▁perceived	-11.5996
▁Current	-11.6
▁Russell	-11.6
▁29,	-11.6
▁Franklin	-11.6
▁brave	-11.6001
▁collaborate	-11.6003
▁sealed	-11.6003
▁Crown	-11.6004
▁Write	-11.6006
▁Consumer	-11.6006
▁Po	-11.6007
▁2007.	-11.6008
▁Circle	-11.6008
▁sleek	-11.601
▁flu	-11.6012
ery	-11.6013
▁Something	-11.6013
▁Horse	-11.6014
▁sleeves	-11.6015
▁develops	-11.6017
▁nominated	-11.6017
▁Eco	-11.602
▁bare	-11.602
▁proteins	-11.6022
▁Lu	-11.6022
▁deer	-11.6023
▁Nation	-11.6025
▁refined	-11.6026
▁deployed	-11.6027
▁sights	-11.6028
▁Pin	-11.6029
▁Treatment	-11.6029
▁archive	-11.603
▁appearing	-11.6032
▁counting	-11.6038
▁Mercedes	-11.6039
▁enthusiasts	-11.604
▁Article	-11.6042
shaped	-11.6043
▁Graham	-11.6044
▁salmon	-11.6046
▁administrator	-11.6046
Hello	-11.6046
▁Christopher	-11.605
▁prescribed	-11.6052
pur	-11.6053
▁Tips	-11.6053
▁journalists	-11.6054
▁pound	-11.6058
ative	-11.6058
▁pharmaceutical	-11.6058
▁belongs	-11.6059
▁Marvel	-11.6059
▁Vista	-11.606
▁permanently	-11.6061
▁affiliated	-11.6065
▁polish	-11.6065
▁strips	-11.6066
▁dryer	-11.6066
▁hose	-11.6067
▁Douglas	-11.6069
minded	-11.6069
▁Virtual	-11.6071
▁athlete	-11.6072
ju	-11.6075
▁coordination	-11.6076
▁builder	-11.6081
▁mindset	-11.6083
Create	-11.6087
▁pillow	-11.6087
kind	-11.6087
▁Otherwise	-11.6088
▁Healthcare	-11.6092
▁bubble	-11.6092
▁Lower	-11.6092
▁AD	-11.6093
▁Si	-11.6097
▁offset	-11.6097
▁undertake	-11.6099
▁verified	-11.6101
Three	-11.6101
▁logical	-11.6102
▁terrific	-11.6102
23	-11.6105
▁rankings	-11.6105
▁Racing	-11.6106
▁PRO	-11.6107
ski	-11.6107
▁ST	-11.6107
▁performs	-11.6108
▁meantime	-11.611
▁inquiry	-11.6111
▁railway	-11.6113
▁Indeed	-11.6113
▁shirts	-11.6116
▁breathe	-11.6117
▁Published	-11.612
worth	-11.612
▁Supply	-11.6126
▁combo	-11.6128
▁regret	-11.613
▁landed	-11.6131
▁novels	-11.6132
▁disclosure	-11.6134
▁median	-11.6136
wall	-11.6138
▁acrylic	-11.614
▁scared	-11.6145
▁conveniently	-11.6149
plus	-11.6149
▁Partner	-11.615
▁creator	-11.6151
▁router	-11.6155
▁1920	-11.6155
▁messaging	-11.6156
▁preliminary	-11.6157
first	-11.6159
▁shifting	-11.6162
▁neighbor	-11.6163
sky	-11.6164
▁discomfort	-11.6167
▁Brexit	-11.6167
▁wondered	-11.6168
▁waist	-11.6169
▁starter	-11.617
▁rhythm	-11.6173
▁habitat	-11.6176
IN	-11.6177
▁UI	-11.6178
▁HIV	-11.618
▁WE	-11.618
▁translated	-11.6181
▁cinema	-11.6183
▁Baptist	-11.6186
▁Explorer	-11.6189
▁incidents	-11.619
▁technician	-11.6192
▁Norway	-11.6195
▁discusses	-11.6199
▁Mars	-11.6199
▁socks	-11.6201
▁ginger	-11.6201
▁seventh	-11.6207
▁Users	-11.6208
▁eliminating	-11.6208
▁vinegar	-11.6208
▁Transport	-11.6211
▁Includes	-11.6211
▁luggage	-11.6212
▁financially	-11.6213
▁Others	-11.6215
▁countryside	-11.6215
▁2:	-11.6218
▁palette	-11.6223
▁Specialist	-11.6223
▁competitions	-11.6226
▁Trading	-11.6227
▁ARE	-11.6229
▁discretion	-11.623
▁badly	-11.623
▁paragraph	-11.6232
▁informal	-11.6233
▁practically	-11.6233
ID	-11.6234
▁lands	-11.6238
▁stadium	-11.6238
▁z	-11.6238
▁ANY	-11.6238
▁worries	-11.6239
▁ethics	-11.6239
▁Belgium	-11.624
▁arena	-11.6241
▁cleared	-11.6242
▁immigrants	-11.6242
▁Theater	-11.6243
▁argued	-11.6243
ble	-11.6244
▁qualifications	-11.6248
▁ha	-11.625
▁soda	-11.6252
▁conditioner	-11.6252
Below	-11.6253
▁organ	-11.6254
▁panic	-11.6255
▁orientation	-11.6257
▁pic	-11.626
▁substances	-11.6261
▁90%	-11.6263
▁Competition	-11.6266
▁competent	-11.6267
▁40%	-11.6268
▁paperwork	-11.6272
▁Bristol	-11.6272
▁newspapers	-11.6275
▁sheep	-11.6278
▁OH	-11.6278
▁crust	-11.6279
▁evaluated	-11.6279
▁Retrieved	-11.6279
▁proximity	-11.6281
▁lap	-11.6286
▁den	-11.6288
▁amazed	-11.629
▁Risk	-11.6291
▁Cooper	-11.6292
▁celebrity	-11.6292
▁injection	-11.6296
▁commands	-11.63
▁Features	-11.6305
▁responding	-11.6305
▁delayed	-11.6306
▁cited	-11.6307
▁airlines	-11.6309
▁Basic	-11.6311
▁dated	-11.6312
▁fixing	-11.6313
▁strikes	-11.6314
▁Edinburgh	-11.6314
▁threatened	-11.6314
ium	-11.6314
▁Ku	-11.6314
market	-11.6315
▁gut	-11.6317
changing	-11.6317
ct	-11.6317
▁indicators	-11.6319
▁kidney	-11.632
▁GT	-11.6326
▁midnight	-11.6327
▁Designer	-11.6329
▁Month	-11.6332
▁trace	-11.6332
▁blessing	-11.6332
▁petition	-11.6334
▁breakdown	-11.6334
bank	-11.6336
▁instructors	-11.6339
▁hyper	-11.6339
▁poems	-11.634
▁pc	-11.634
▁binary	-11.6341
▁Singh	-11.6344
▁Steven	-11.6346
▁VIP	-11.6346
yo	-11.6346
▁barn	-11.6349
▁solved	-11.635
▁Apply	-11.635
▁puppy	-11.635
▁scenic	-11.6354
century	-11.6355
jo	-11.6358
▁reputable	-11.6358
RE	-11.6358
▁analyst	-11.6359
proof	-11.6361
▁trap	-11.6361
▁economics	-11.6361
▁Heights	-11.6362
▁waterproof	-11.6364
▁LCD	-11.6365
▁Chelsea	-11.6369
▁algorithms	-11.6375
▁metals	-11.6376
▁acne	-11.6378
▁progression	-11.6378
▁assembled	-11.6379
▁Stage	-11.638
▁sleeve	-11.6381
▁foil	-11.6382
▁Mountains	-11.6384
▁punch	-11.6387
▁suggesting	-11.6389
IP	-11.6389
▁consciousness	-11.6392
▁outreach	-11.6392
HD	-11.6393
▁happier	-11.6397
▁CE	-11.6401
▁Reviews	-11.6401
▁traditionally	-11.6402
▁$25	-11.6405
che	-11.6406
▁Lawrence	-11.6406
▁attachment	-11.6407
▁recreation	-11.6407
▁LG	-11.6409
▁57	-11.6412
two	-11.6413
▁sculpture	-11.6416
▁extends	-11.6416
▁24,	-11.6417
▁acute	-11.6418
▁yarn	-11.6418
▁discounted	-11.6419
▁certificates	-11.642
▁happily	-11.6421
▁toy	-11.6422
▁tenant	-11.6423
▁Harbor	-11.6426
▁Designed	-11.6426
▁$15	-11.6428
▁subscribers	-11.643
▁nowhere	-11.6434
▁lobby	-11.6434
▁FC	-11.6436
▁Princess	-11.6437
▁LinkedIn	-11.6439
▁Electronic	-11.6439
▁pencil	-11.644
▁tops	-11.6442
▁observation	-11.6442
ps	-11.6443
▁Wright	-11.6445
ita	-11.6445
▁researching	-11.6447
▁blogger	-11.6447
▁culinary	-11.6448
▁recruiting	-11.6448
▁Info	-11.645
64	-11.645
▁scroll	-11.6451
▁pointing	-11.6452
▁Imagine	-11.6455
▁rope	-11.6456
▁hiding	-11.6457
▁compassion	-11.6459
mark	-11.646
▁hint	-11.6461
▁comprises	-11.6462
▁58	-11.6463
▁chrome	-11.6464
▁Leader	-11.6464
▁garbage	-11.6465
▁fare	-11.6465
▁scholars	-11.6465
▁perfection	-11.6467
▁refugees	-11.6467
▁heroes	-11.6469
▁wound	-11.6471
▁96	-11.6473
▁stupid	-11.6474
▁incentives	-11.6474
▁investigations	-11.6475
▁Teacher	-11.6477
▁instrumental	-11.6478
very	-11.6483
▁invoice	-11.6484
▁Economics	-11.6485
▁Category	-11.6486
▁Upper	-11.6487
▁sciences	-11.6489
▁Route	-11.6492
▁warmer	-11.6492
▁PayPal	-11.6493
▁disclose	-11.6495
▁iPod	-11.6495
▁WI	-11.6497
▁boyfriend	-11.6499
▁bundle	-11.6502
▁assessed	-11.6504
▁sustain	-11.6504
▁stain	-11.6506
▁indication	-11.6506
▁assurance	-11.6508
▁ca	-11.6508
▁BA	-11.6509
▁necessity	-11.651
Work	-11.6511
▁Plastic	-11.6511
▁locals	-11.6512
▁demonstration	-11.6513
▁bears	-11.6513
▁bloggers	-11.6513
▁Certification	-11.6515
▁Labour	-11.6515
▁Luxury	-11.6516
▁gum	-11.6519
▁columns	-11.6519
▁urge	-11.652
▁viable	-11.6521
45	-11.6523
AL	-11.6523
order	-11.6525
▁profound	-11.6526
▁investigating	-11.6526
ada	-11.6526
▁spirits	-11.6532
log	-11.6532
▁Richmond	-11.6533
▁apples	-11.6533
▁administrators	-11.6533
▁tri	-11.6534
▁overlooking	-11.6539
▁occurring	-11.654
▁desirable	-11.654
▁UP	-11.6541
▁noon	-11.6541
▁posters	-11.6542
▁tin	-11.6547
▁banner	-11.6549
▁villa	-11.6554
▁specification	-11.6557
▁cinnamon	-11.6558
▁influential	-11.6558
▁lively	-11.656
pre	-11.656
▁SW	-11.6563
▁activate	-11.6564
CA	-11.6566
core	-11.6568
▁researcher	-11.6573
▁Airlines	-11.6576
▁Emily	-11.6576
▁verification	-11.6577
▁bat	-11.6578
▁Aaron	-11.658
▁wages	-11.6582
▁demonstrates	-11.6583
▁strings	-11.6583
▁Madrid	-11.6583
▁steal	-11.6584
Still	-11.6585
▁Format	-11.6585
▁projected	-11.6586
rock	-11.6586
▁offshore	-11.6587
▁Physical	-11.6587
▁describing	-11.6589
▁1996	-11.659
Right	-11.6592
▁inspirational	-11.6599
▁bespoke	-11.6599
▁sacred	-11.6599
▁Recovery	-11.66
▁6-	-11.66
mile	-11.6602
▁necklace	-11.6605
▁XP	-11.6609
3,	-11.661
▁missions	-11.6612
▁breeze	-11.6613
▁Stand	-11.6616
▁Strategy	-11.6619
▁Constitution	-11.662
TH	-11.662
▁unemployment	-11.6621
▁Soul	-11.6622
▁imported	-11.6624
▁fate	-11.6625
lar	-11.6626
form	-11.6627
▁commissioned	-11.663
▁Agriculture	-11.663
iya	-11.6632
▁silly	-11.6634
ok	-11.6635
▁reservations	-11.6638
▁biology	-11.6639
▁Artist	-11.6643
▁spam	-11.6649
28	-11.665
▁Northwest	-11.6653
▁Amsterdam	-11.6655
▁NASA	-11.6658
▁Ready	-11.6659
▁Taking	-11.6659
▁legislative	-11.6659
▁sandwich	-11.666
▁Elementary	-11.6664
▁Carter	-11.6664
▁3.0	-11.6665
Mark	-11.6666
▁nut	-11.6667
▁Nu	-11.6668
▁Lights	-11.667
▁Track	-11.6671
▁avoided	-11.6673
▁Workshop	-11.6674
▁economical	-11.6675
▁exhibitions	-11.6675
▁wires	-11.6676
▁textures	-11.668
▁Joint	-11.668
▁Doors	-11.6681
▁medicines	-11.6681
▁bother	-11.6681
through	-11.6681
▁Meet	-11.6684
▁Robin	-11.6684
▁predicted	-11.6686
▁Rachel	-11.6688
▁appetite	-11.6689
▁deploy	-11.6692
▁negotiate	-11.6694
▁Columbus	-11.6696
▁Voice	-11.6698
▁glimpse	-11.6702
▁incorrect	-11.6702
West	-11.6703
je	-11.6706
▁pads	-11.6708
▁ch	-11.6709
▁smallest	-11.6712
▁quantities	-11.6713
▁eaten	-11.6713
▁timeless	-11.6714
▁pursuit	-11.6714
▁traded	-11.6714
▁hung	-11.6716
55	-11.6716
▁Close	-11.6717
Al	-11.6722
▁Beyond	-11.6722
World	-11.6722
▁Arabia	-11.6723
▁NHS	-11.6723
▁beside	-11.6724
▁dishwasher	-11.6726
▁Angel	-11.6727
▁securely	-11.6728
▁quoted	-11.6728
▁Bond	-11.6729
▁outlined	-11.6731
▁yogurt	-11.6733
▁Questions	-11.6733
▁distant	-11.6733
▁Parker	-11.6735
▁Sheet	-11.6738
▁MBA	-11.6741
hill	-11.6741
▁Paint	-11.6741
▁landscapes	-11.6743
pp	-11.6743
▁securities	-11.6744
base	-11.6746
▁Kennedy	-11.6746
▁camps	-11.6748
▁Stewart	-11.6749
▁revised	-11.6749
▁2007,	-11.675
▁Murray	-11.6752
▁Focus	-11.6753
Green	-11.6755
▁statistical	-11.6756
Select	-11.676
▁Programme	-11.676
▁selections	-11.6761
▁recovered	-11.6762
▁accommodations	-11.6764
▁Nashville	-11.6764
ade	-11.6765
ence	-11.6767
▁washer	-11.6769
▁Marie	-11.6769
▁reads	-11.6776
▁candle	-11.6776
Happy	-11.6777
▁Cards	-11.6778
▁Say	-11.6779
▁enthusiastic	-11.6781
▁greens	-11.6783
▁holistic	-11.6784
▁lakes	-11.6784
▁Copyright	-11.6784
▁appearances	-11.6786
▁sends	-11.6787
night	-11.6787
▁kingdom	-11.679
▁nursery	-11.679
▁mph	-11.679
▁shy	-11.679
▁enrollment	-11.6792
▁Ash	-11.6796
▁proportion	-11.6798
▁Author	-11.6799
▁Denmark	-11.68
▁Visa	-11.68
▁skiing	-11.6801
▁roster	-11.6802
▁Until	-11.6803
▁enjoyment	-11.6804
▁Forex	-11.6806
▁costumes	-11.6811
▁Payment	-11.6812
▁que	-11.6813
▁phrases	-11.6814
▁conflicts	-11.6816
▁frustration	-11.6816
▁Vintage	-11.682
▁ceilings	-11.682
▁anticipate	-11.6821
▁Fitness	-11.6822
▁CC	-11.6822
▁mechanics	-11.6822
▁gospel	-11.6823
▁Either	-11.6824
▁empower	-11.6827
▁Recently	-11.6829
▁CPU	-11.6833
▁consumed	-11.6833
▁Arkansas	-11.6835
▁referral	-11.6835
filled	-11.6835
▁gem	-11.6836
▁remedy	-11.6838
▁Dis	-11.6839
▁Official	-11.6839
▁Maintenance	-11.6841
▁penalties	-11.6842
▁Har	-11.6844
▁62	-11.6845
▁Alberta	-11.6846
▁listened	-11.6847
▁Hart	-11.6847
▁Virgin	-11.6848
▁Fortunately	-11.6849
▁absorb	-11.6852
▁recordings	-11.6855
▁Chat	-11.6855
Data	-11.6856
▁Standards	-11.6858
▁Extra	-11.6859
▁Liberty	-11.6861
▁witnessed	-11.6861
▁swap	-11.6862
▁Rice	-11.6863
▁Aid	-11.6863
▁rival	-11.6867
▁joke	-11.6868
▁screws	-11.6868
▁Warren	-11.687
Try	-11.6872
▁stirring	-11.6872
ph	-11.6872
▁Collins	-11.6874
fer	-11.6876
▁el	-11.6877
▁Budget	-11.6877
UK	-11.6878
▁Islam	-11.688
▁Browse	-11.688
▁NE	-11.6882
▁SMS	-11.6883
▁implants	-11.6883
▁thumb	-11.6885
▁Brothers	-11.6888
▁documented	-11.689
▁pending	-11.6891
▁Must	-11.6894
▁slices	-11.6895
▁vector	-11.6896
Car	-11.6896
▁adverse	-11.6897
▁Karen	-11.6897
▁header	-11.6898
▁20,	-11.6903
▁locksmith	-11.6904
▁journals	-11.6904
▁Revolution	-11.6904
36	-11.6905
▁Ian	-11.6907
▁seasoned	-11.6909
▁Had	-11.6913
▁Cafe	-11.6914
▁activated	-11.6915
▁Shopping	-11.6915
▁flesh	-11.6915
▁lush	-11.6916
▁illustration	-11.6917
Part	-11.6917
▁Turkish	-11.6918
▁washed	-11.6919
▁Mad	-11.692
▁backdrop	-11.6921
▁Gate	-11.6921
▁Between	-11.6921
▁Ham	-11.6923
▁elevated	-11.6925
▁Twin	-11.6926
▁bedding	-11.6932
▁slower	-11.6934
▁banned	-11.6935
▁defeated	-11.6935
▁mint	-11.6937
▁advisory	-11.6939
built	-11.694
▁Platform	-11.6941
▁Cell	-11.6943
▁briefly	-11.6944
▁liberal	-11.6944
▁Alice	-11.6951
▁regulated	-11.6952
▁surf	-11.6954
▁decorate	-11.6955
▁ebook	-11.6956
▁Southeast	-11.6958
4)	-11.6962
▁bases	-11.6966
▁000	-11.6967
▁Graduate	-11.6968
▁linking	-11.6969
▁Rules	-11.6969
▁divine	-11.697
▁Ge	-11.697
▁aggregate	-11.697
▁hats	-11.6972
▁Commissioner	-11.6972
app	-11.6973
▁partly	-11.6974
▁dietary	-11.6982
▁modest	-11.6983
▁59	-11.6983
▁answering	-11.6983
▁Options	-11.6985
du	-11.6985
▁Circuit	-11.6985
▁farmer	-11.6987
▁MB	-11.6987
▁Soviet	-11.6988
▁shifts	-11.699
▁Arthur	-11.6991
▁elegance	-11.6993
▁coordinate	-11.6994
▁brokers	-11.6995
ever	-11.6995
▁heels	-11.6997
▁invites	-11.6999
▁rounded	-11.7
sville	-11.7002
▁Campus	-11.7004
▁notifications	-11.7004
▁grandmother	-11.7005
▁earliest	-11.7006
▁Storm	-11.7009
▁rugs	-11.7013
▁utilities	-11.7014
▁harmony	-11.7015
▁tobacco	-11.7015
▁Applications	-11.7019
▁mall	-11.702
▁warrant	-11.702
▁chopped	-11.7022
▁surgeon	-11.7024
▁compounds	-11.7024
▁switches	-11.7025
▁flame	-11.7026
▁sometime	-11.7026
▁Flat	-11.7027
▁Campbell	-11.703
ical	-11.7033
▁ONE	-11.7035
▁donors	-11.7035
▁scholarships	-11.7037
▁Orchestra	-11.7041
▁extraction	-11.7041
▁Austria	-11.7042
▁beads	-11.7042
▁Nintendo	-11.7045
▁Picture	-11.7045
▁mushrooms	-11.7049
▁Faculty	-11.705
▁Ground	-11.7051
▁Outlook	-11.7053
▁gratitude	-11.7055
▁qualifying	-11.7058
▁lazy	-11.7059
ong	-11.706
▁clinics	-11.706
▁casting	-11.706
▁passport	-11.7061
▁Carl	-11.7063
▁minority	-11.7065
Red	-11.7065
▁PHP	-11.7065
▁cafe	-11.7066
▁spoon	-11.7069
▁bitter	-11.7069
▁convey	-11.707
▁accessing	-11.7071
▁remodeling	-11.7072
founder	-11.7072
▁fortune	-11.7072
▁Camera	-11.7073
▁yearly	-11.7076
▁Sean	-11.7077
ix	-11.7078
▁68	-11.7078
▁Jerusalem	-11.708
▁sunshine	-11.708
▁observations	-11.7083
DC	-11.7083
▁android	-11.7084
▁incentive	-11.7086
▁Ranch	-11.7086
▁Polish	-11.7087
kan	-11.7087
▁Pearl	-11.7088
▁characteristic	-11.7088
▁cents	-11.709
▁evenly	-11.7091
▁shallow	-11.7091
▁grasp	-11.7092
▁performers	-11.7092
▁Military	-11.7093
Overall	-11.7093
▁Penn	-11.7094
Their	-11.7095
▁harness	-11.7095
▁bomb	-11.7099
▁Adams	-11.7099
ken	-11.7103
ward	-11.7103
▁bulbs	-11.7104
▁Electrical	-11.7104
▁visually	-11.7105
▁Czech	-11.7106
▁suites	-11.7107
▁belly	-11.711
▁hobby	-11.7111
▁boutique	-11.7111
▁detected	-11.7112
ett	-11.7114
▁Jacob	-11.7114
▁impacted	-11.7115
▁Buffalo	-11.7116
source	-11.7118
Google	-11.7122
▁Hotels	-11.7123
▁node	-11.7124
▁slides	-11.7126
▁prone	-11.7127
▁gates	-11.713
▁Seven	-11.7131
wing	-11.7134
▁accessory	-11.7136
▁jurisdiction	-11.7138
▁cancelled	-11.7139
▁Montana	-11.7142
▁roasted	-11.7143
especially	-11.7143
yan	-11.7144
tal	-11.7146
▁Carpet	-11.7147
▁dense	-11.7148
open	-11.7149
▁Olympics	-11.7149
story	-11.715
▁namely	-11.7151
▁1997	-11.7153
▁breathtaking	-11.7153
▁20-	-11.7155
Perhaps	-11.7156
▁credentials	-11.7161
nes	-11.7161
▁thoughtful	-11.7162
▁discharge	-11.7164
▁touring	-11.7165
▁energetic	-11.7165
-9	-11.7166
▁salon	-11.7167
▁showers	-11.7169
band	-11.7169
▁calcium	-11.717
▁approve	-11.7173
▁themed	-11.7173
▁dominant	-11.7174
▁Success	-11.7176
▁touching	-11.7177
▁lung	-11.7177
▁bulb	-11.7178
ably	-11.718
▁Cultural	-11.7181
tan	-11.7183
▁lectures	-11.7185
▁hammer	-11.7186
▁Broadway	-11.7187
▁grams	-11.7189
▁Rod	-11.7189
▁bridges	-11.719
▁Tile	-11.7192
▁Moving	-11.7192
▁cellular	-11.7193
▁Lots	-11.7195
▁allergies	-11.7198
▁configure	-11.72
▁marketers	-11.7201
▁fragrance	-11.7204
▁acoustic	-11.7205
▁eligibility	-11.7207
▁coated	-11.7207
▁qualification	-11.7209
▁drilling	-11.7209
Pre	-11.721
▁160	-11.7212
▁Advisory	-11.7212
▁humble	-11.7213
▁terrorist	-11.7216
▁shrimp	-11.7219
▁Champions	-11.7219
▁Steam	-11.722
▁veggies	-11.722
▁FM	-11.7221
▁anonymous	-11.7222
▁exquisite	-11.7225
27	-11.7226
▁allegedly	-11.7227
▁discrimination	-11.7227
▁Location	-11.723
▁grandchildren	-11.7234
COM	-11.7234
▁spokesman	-11.7236
▁premiere	-11.7236
post	-11.7236
ES	-11.7241
???	-11.7241
▁favour	-11.7241
▁Linda	-11.7242
▁folding	-11.7244
▁rotation	-11.7248
sch	-11.7249
▁intersection	-11.725
SA	-11.725
▁Log	-11.725
▁lengthy	-11.7252
away	-11.7255
▁footprint	-11.7257
▁Arena	-11.7262
▁shiny	-11.7263
▁theoretical	-11.7263
▁Unique	-11.7264
▁altogether	-11.7269
Search	-11.7272
▁£1	-11.7272
▁Wolf	-11.7272
▁accountability	-11.7272
▁withdrawal	-11.7273
▁builders	-11.7277
▁tendency	-11.7278
▁Crew	-11.728
▁Die	-11.7281
▁capturing	-11.7281
▁Portugal	-11.7284
▁dull	-11.7286
▁acknowledged	-11.7286
▁Mitchell	-11.7287
▁playground	-11.7287
card	-11.7288
▁attacked	-11.7292
▁innocent	-11.7295
▁Secret	-11.7296
building	-11.7301
ell	-11.7302
▁disputes	-11.7304
py	-11.7304
income	-11.7305
▁Managing	-11.7305
China	-11.7306
▁chaos	-11.7308
▁cholesterol	-11.7309
▁pressed	-11.7309
▁coordinator	-11.7312
▁LP	-11.7317
800	-11.7319
▁Weather	-11.732
pan	-11.732
▁Photos	-11.7322
▁towels	-11.7322
▁compliant	-11.7323
ula	-11.7323
▁caps	-11.7324
▁melt	-11.7324
▁wellbeing	-11.7325
▁appropriately	-11.7325
▁celebrations	-11.7326
▁Retail	-11.7326
cast	-11.7327
▁spark	-11.7328
▁cylinder	-11.7329
▁1%	-11.7331
▁GP	-11.7332
▁extending	-11.7339
▁Cisco	-11.7341
▁mixer	-11.7341
▁Left	-11.7341
▁exhibits	-11.7343
web	-11.7347
Everyone	-11.7348
▁homeowner	-11.7349
▁Taiwan	-11.735
▁grief	-11.735
family	-11.7351
ena	-11.7351
Due	-11.7351
▁crowded	-11.7353
ay	-11.7354
▁reporter	-11.7354
▁behavioral	-11.7356
▁encouragement	-11.7357
▁wishing	-11.7357
▁$500	-11.7358
▁THAT	-11.7359
▁memorial	-11.7359
▁startups	-11.736
▁Tampa	-11.7362
▁publishers	-11.7363
▁evolve	-11.7366
media	-11.7368
▁bonuses	-11.7369
▁2,000	-11.7373
▁pins	-11.7377
▁Return	-11.7377
▁glance	-11.7379
▁wonders	-11.7381
lee	-11.7383
▁affair	-11.7384
PA	-11.7386
600	-11.7387
▁fraction	-11.7388
▁arising	-11.7388
▁insects	-11.7391
▁genuinely	-11.7399
▁extensively	-11.7403
▁realised	-11.7405
▁scientist	-11.7406
▁dominated	-11.7407
▁Shanghai	-11.7408
▁Sep	-11.741
▁frustrated	-11.7411
▁alerts	-11.7412
▁hydraulic	-11.7414
▁professionalism	-11.7415
▁assortment	-11.7419
ika	-11.742
▁revolutionary	-11.7425
▁beginner	-11.7425
▁laying	-11.7425
ator	-11.7426
▁Worth	-11.743
PC	-11.743
▁diamonds	-11.7431
tor	-11.7432
▁sentences	-11.7433
▁Phase	-11.7436
▁Sorry	-11.744
▁cattle	-11.7441
▁asleep	-11.7443
▁payday	-11.7443
season	-11.7443
iv	-11.7444
▁prohibited	-11.7446
love	-11.7446
▁divide	-11.7446
▁Client	-11.7446
▁shoppers	-11.7448
▁flush	-11.7452
▁float	-11.7454
▁linen	-11.7456
▁Traditional	-11.7457
▁License	-11.7457
front	-11.7458
▁1)	-11.7458
▁respondents	-11.7459
▁Got	-11.7459
Online	-11.7464
33	-11.7471
▁midst	-11.7472
▁connector	-11.7476
▁ankle	-11.7479
cy	-11.7481
▁editors	-11.7484
▁bachelor	-11.7485
▁Desk	-11.7487
▁throat	-11.7488
var	-11.7489
▁knock	-11.749
▁timeline	-11.7491
▁slim	-11.7493
▁NOW	-11.7493
▁theories	-11.7494
▁patches	-11.7495
▁illustrated	-11.7496
▁Teaching	-11.7496
▁graph	-11.7498
▁Climate	-11.7498
▁gameplay	-11.7499
▁foundations	-11.7499
▁undoubtedly	-11.7501
▁Match	-11.7502
▁distinction	-11.7504
▁Margaret	-11.7504
▁seminars	-11.7505
▁hi	-11.7506
lu	-11.7508
David	-11.751
Full	-11.751
▁overwhelmed	-11.7511
▁scanning	-11.7513
code	-11.7515
▁occupation	-11.7516
▁accessibility	-11.7517
▁Almost	-11.7517
▁approx	-11.7523
▁fires	-11.7524
▁Disease	-11.7525
▁cycles	-11.7526
▁positively	-11.7528
▁technically	-11.753
▁Industries	-11.7532
▁fever	-11.7532
▁badge	-11.7535
▁Morris	-11.7535
▁stats	-11.7537
▁lacking	-11.7538
▁Engineer	-11.7538
▁collapse	-11.754
▁anchor	-11.754
▁communicating	-11.754
▁Cyber	-11.7542
▁(3)	-11.7542
data	-11.7542
pen	-11.7543
▁Stainless	-11.7546
▁Cable	-11.7546
▁monster	-11.7549
▁renewed	-11.7552
▁marking	-11.7553
▁weigh	-11.7554
▁Brazilian	-11.7555
▁clue	-11.7556
Instead	-11.7556
▁rows	-11.7558
▁parameter	-11.756
ding	-11.7561
▁pale	-11.7564
▁shareholders	-11.7565
▁1930	-11.7566
▁Robinson	-11.7567
▁Morning	-11.7567
uri	-11.7568
cher	-11.7569
▁vibe	-11.7573
▁optimized	-11.7574
▁Dry	-11.7575
▁CAN	-11.7576
▁licence	-11.7576
▁existed	-11.7578
▁architects	-11.758
▁burned	-11.758
▁needle	-11.7581
▁Prices	-11.7583
▁Emma	-11.7584
▁63	-11.7584
▁associates	-11.7585
▁boom	-11.7586
▁Knowledge	-11.7587
▁intentions	-11.7589
▁hunger	-11.7589
▁discovering	-11.7591
▁OEM	-11.7593
▁withstand	-11.7594
amp	-11.7596
▁branded	-11.76
▁76	-11.7601
▁Offer	-11.7602
▁accountable	-11.7603
▁Sugar	-11.7607
▁Math	-11.761
▁Ultimate	-11.7615
▁reporters	-11.7616
▁abundant	-11.7616
▁logged	-11.7617
SE	-11.7621
▁damaging	-11.7621
▁sync	-11.7623
▁Downtown	-11.7623
▁Col	-11.7623
par	-11.7625
▁sour	-11.7626
▁Wireless	-11.7626
▁Knight	-11.7626
▁undertaken	-11.7626
▁2006.	-11.7627
▁initiated	-11.7628
▁Puerto	-11.763
▁stains	-11.763
▁Mel	-11.763
THE	-11.7631
▁modifications	-11.7633
▁Nevertheless	-11.7635
▁meta	-11.7635
▁cricket	-11.7635
▁Academic	-11.7636
▁workflow	-11.7638
▁advocates	-11.7641
▁Michelle	-11.7644
▁$4	-11.7647
▁introduces	-11.7648
▁tattoo	-11.7648
Big	-11.765
▁chase	-11.765
▁violations	-11.7652
▁awful	-11.7653
▁assign	-11.7654
Shop	-11.7654
▁Agent	-11.7654
▁viral	-11.7657
▁Larry	-11.7658
▁beverages	-11.7659
▁giveaway	-11.7661
400	-11.7662
▁positioning	-11.7667
▁compression	-11.7668
▁Wheel	-11.767
▁unforgettable	-11.7672
▁Schedule	-11.7672
▁decides	-11.7672
▁Dell	-11.7673
▁Marc	-11.7674
▁partnered	-11.7675
▁cocktails	-11.7676
Currently	-11.7677
▁Fred	-11.768
▁140	-11.7681
med	-11.7682
▁retro	-11.7686
▁Queensland	-11.7687
General	-11.7687
▁Historical	-11.7688
▁switched	-11.7689
▁horrible	-11.7689
▁nowadays	-11.7689
▁storing	-11.7694
▁gravity	-11.7694
Choose	-11.7694
ari	-11.7695
zo	-11.7695
maker	-11.7698
▁Higher	-11.7699
▁Sat	-11.77
▁renewal	-11.7702
▁cancellation	-11.7702
▁1-2	-11.7705
▁municipal	-11.7705
▁allegations	-11.7707
▁Plaza	-11.7707
▁driveway	-11.7708
▁poorly	-11.771
▁Vermont	-11.7712
▁kicked	-11.7715
▁hygiene	-11.7716
▁Prof	-11.772
▁Calendar	-11.772
▁Fat	-11.772
▁malware	-11.7726
▁Corps	-11.7727
▁literacy	-11.7728
26	-11.773
▁hardest	-11.773
▁67	-11.773
▁Gun	-11.773
▁Hat	-11.7731
▁Breakfast	-11.7733
▁strongest	-11.7737
▁sentiment	-11.7738
▁Built	-11.7739
▁desperate	-11.7739
▁invitations	-11.7744
▁Han	-11.7748
million	-11.7749
▁Pure	-11.7749
▁emerge	-11.775
▁Privacy	-11.7751
▁adhere	-11.7755
▁domains	-11.7759
▁bias	-11.7764
▁Volume	-11.7764
▁incorporating	-11.7764
▁engineered	-11.7765
▁suspected	-11.7769
▁Deputy	-11.7772
▁securing	-11.7774
▁critics	-11.7776
▁cleaners	-11.7777
▁breeding	-11.7778
▁anxious	-11.778
▁ka	-11.7782
▁activation	-11.7782
▁mum	-11.7783
▁fixture	-11.7783
▁lesser	-11.7785
Need	-11.7785
▁Notice	-11.7786
▁cab	-11.7786
Plus	-11.7787
▁Brisbane	-11.7789
▁$6	-11.779
makers	-11.779
▁blocking	-11.7792
▁Materials	-11.7795
▁Different	-11.7795
burg	-11.7796
risk	-11.7797
▁deadly	-11.78
▁curiosity	-11.7801
▁Customers	-11.7802
▁Excellent	-11.7803
▁raises	-11.7805
place	-11.7805
▁1/4	-11.7806
▁tan	-11.7807
elle	-11.7807
▁interventions	-11.7808
soft	-11.7809
▁fame	-11.7814
▁VAT	-11.7815
▁#2	-11.7815
▁Yahoo	-11.7816
Description	-11.7818
▁beginners	-11.7818
▁130	-11.7819
▁Switch	-11.782
▁indicating	-11.782
▁strengthening	-11.7821
▁youngest	-11.7822
▁Hub	-11.7822
▁optimum	-11.7823
CD	-11.7824
▁yeah	-11.7826
▁framed	-11.783
piece	-11.783
▁coloured	-11.7831
range	-11.7832
works	-11.7832
▁Palestinian	-11.7833
▁formerly	-11.7833
▁TN	-11.7833
▁mathematics	-11.7836
▁marathon	-11.7836
▁genes	-11.7837
▁batter	-11.7839
ala	-11.7839
▁inevitable	-11.784
▁Excellence	-11.7841
▁Hudson	-11.7842
▁drainage	-11.7846
▁fatty	-11.7847
▁helmet	-11.7847
▁vocals	-11.785
▁pastor	-11.785
▁servicing	-11.785
▁Adventure	-11.7851
▁recognise	-11.7854
▁devastating	-11.7854
▁vegetarian	-11.7856
sha	-11.7859
▁eighth	-11.7861
▁Adult	-11.7862
▁humidity	-11.7863
▁forex	-11.7865
▁Starting	-11.7865
▁kg	-11.7866
▁Samuel	-11.787
▁emotionally	-11.7871
five	-11.7872
▁Package	-11.7872
▁beats	-11.7872
▁Pot	-11.7873
▁Glasgow	-11.7879
▁bamboo	-11.788
▁prompted	-11.7884
ide	-11.7884
eg	-11.7888
▁8-	-11.7888
▁analyzed	-11.7889
iest	-11.7889
▁Vitamin	-11.789
stage	-11.7891
▁fifty	-11.7893
75	-11.7895
▁licenses	-11.7895
▁debit	-11.7896
max	-11.7896
tro	-11.7896
▁acclaimed	-11.7898
ane	-11.7898
▁beam	-11.7899
▁recommends	-11.79
▁candles	-11.79
▁imagined	-11.79
▁commentary	-11.79
▁girlfriend	-11.7902
▁relieve	-11.7902
▁Ja	-11.7902
▁waited	-11.7903
▁repaired	-11.7905
▁Roger	-11.7906
▁MN	-11.7907
▁apparel	-11.7908
▁Hampshire	-11.7909
▁splash	-11.791
▁Oscar	-11.791
▁invaluable	-11.7911
▁concentrated	-11.7913
Out	-11.7918
▁defects	-11.7922
▁failures	-11.7926
▁tee	-11.7926
▁furnished	-11.7928
▁internship	-11.7929
▁expects	-11.7929
wan	-11.7929
▁Val	-11.793
-15	-11.7934
▁glorious	-11.7937
▁Partnership	-11.7939
tin	-11.794
▁imperative	-11.794
▁burst	-11.7943
▁Bright	-11.7944
▁stickers	-11.7948
▁monitored	-11.7949
▁flagship	-11.795
▁unprecedented	-11.795
▁Parks	-11.7951
▁threads	-11.7951
▁buffet	-11.7952
▁collision	-11.7952
▁freshly	-11.7953
▁contrary	-11.7954
▁melted	-11.7954
т	-11.7954
was	-11.7963
▁parish	-11.7963
BC	-11.7965
▁Ban	-11.7965
▁Jun	-11.7966
▁Fr	-11.797
▁Stars	-11.797
▁SAP	-11.7971
▁FBI	-11.7972
RS	-11.7974
▁Bike	-11.7976
▁viewer	-11.7977
yn	-11.7977
▁Montreal	-11.7978
AC	-11.7981
▁knees	-11.7982
▁continent	-11.7982
▁tissues	-11.7982
▁CRM	-11.7985
▁Tar	-11.7986
▁Gear	-11.7986
▁china	-11.7986
▁activists	-11.7989
▁uniquely	-11.7991
▁configured	-11.7992
▁77	-11.7994
▁SUV	-11.7995
▁ladder	-11.7996
▁bail	-11.7996
ue	-11.7998
▁scrap	-11.7999
▁gang	-11.7999
▁Zoo	-11.8
▁Potter	-11.8002
▁analytical	-11.8002
▁Sch	-11.8003
har	-11.8003
▁Nepal	-11.8004
▁yummy	-11.8004
▁Loan	-11.8005
▁peppers	-11.8006
▁highlighting	-11.8007
▁ya	-11.8007
▁parade	-11.8008
▁SF	-11.8009
▁doubled	-11.801
▁Wide	-11.8011
bridge	-11.8014
▁commented	-11.8015
gan	-11.8017
▁Audi	-11.8019
▁zoom	-11.8019
▁predictions	-11.8019
▁modification	-11.802
▁Flower	-11.802
▁correction	-11.8021
▁Planet	-11.8022
▁Sara	-11.8023
▁CS	-11.8025
▁Marshall	-11.8025
▁Assessment	-11.8025
▁pills	-11.8026
Water	-11.8026
Located	-11.8027
▁shortage	-11.8032
▁intriguing	-11.8036
Com	-11.8037
▁Conservation	-11.8038
▁medal	-11.8038
color	-11.8039
▁soak	-11.8039
▁metallic	-11.8039
▁blended	-11.804
▁detailing	-11.8044
▁searched	-11.8045
▁sketch	-11.8047
▁rider	-11.8048
▁cow	-11.8048
▁blinds	-11.805
▁Drop	-11.8051
▁Bull	-11.8054
▁Solution	-11.8055
▁beaten	-11.8056
▁2005.	-11.8056
▁realm	-11.8057
wheel	-11.8058
br	-11.806
▁Material	-11.8063
▁Purchase	-11.8065
az	-11.8065
▁portions	-11.8067
▁worrying	-11.8071
White	-11.8073
▁flooding	-11.8073
body	-11.8073
▁2006,	-11.8074
▁tutorials	-11.8074
▁aligned	-11.8075
▁threshold	-11.8075
▁kindness	-11.8077
▁modular	-11.8077
▁temporarily	-11.8078
ties	-11.8081
▁(6	-11.8081
▁Continue	-11.8084
▁spinal	-11.8084
▁adapter	-11.8086
▁Actually	-11.8087
check	-11.8087
▁Consulting	-11.8088
▁Roy	-11.8089
▁infected	-11.809
▁testimony	-11.8091
▁imposed	-11.8095
▁attribute	-11.8095
▁preservation	-11.8095
▁freelance	-11.8103
▁Sleep	-11.8109
▁clearing	-11.811
▁Episode	-11.811
af	-11.811
▁Finding	-11.8112
▁deny	-11.8115
ene	-11.8118
▁celebrities	-11.8118
▁Alpha	-11.8119
▁imagery	-11.812
▁mega	-11.812
▁shield	-11.8121
▁angles	-11.8125
State	-11.8127
▁cushion	-11.813
Mobile	-11.813
▁furnishings	-11.8132
▁encryption	-11.8132
▁Release	-11.8134
▁Championships	-11.8134
▁Cap	-11.8138
▁Around	-11.814
▁payroll	-11.814
▁freezing	-11.8141
Give	-11.8141
▁greenhouse	-11.8142
▁Carol	-11.8143
▁trades	-11.8144
▁stretching	-11.8144
▁Nissan	-11.8144
▁propose	-11.8146
▁Jessica	-11.8146
▁Branch	-11.8149
▁seamlessly	-11.815
▁competitor	-11.815
▁renting	-11.8153
▁monitors	-11.8153
▁Ward	-11.8154
tra	-11.8157
table	-11.8157
▁Record	-11.8159
▁Syrian	-11.8159
▁insulin	-11.816
▁Initiative	-11.8161
wise	-11.8162
▁rigorous	-11.8162
▁preserved	-11.8163
▁honour	-11.8165
▁unsure	-11.8165
than	-11.8166
▁Stir	-11.8167
▁Cars	-11.8167
▁fellowship	-11.8168
kar	-11.8168
▁consensus	-11.8169
▁renovated	-11.8171
van	-11.8172
▁traits	-11.8172
▁Fed	-11.8173
▁faithful	-11.8174
▁IoT	-11.8177
▁MY	-11.8178
▁Born	-11.8178
▁earrings	-11.818
▁Truck	-11.8183
power	-11.8185
▁recipients	-11.8188
ped	-11.8201
MA	-11.8202
▁Kar	-11.8203
ado	-11.8204
▁Firm	-11.8205
▁Explore	-11.8205
▁Corner	-11.8206
▁Gospel	-11.8208
▁voluntary	-11.8208
▁surround	-11.8209
tu	-11.8211
11.	-11.8212
▁aiming	-11.8212
▁quarterly	-11.8217
bound	-11.8217
▁Woman	-11.8218
29	-11.8218
OK	-11.8219
86	-11.8219
▁withdraw	-11.8219
len	-11.822
▁Mega	-11.8222
selling	-11.8224
▁wealthy	-11.8225
▁broadband	-11.8226
▁1995	-11.8227
▁opera	-11.8231
▁Concrete	-11.8232
▁composer	-11.8234
▁weakness	-11.8235
▁SS	-11.8237
▁defendant	-11.8241
▁medieval	-11.8241
▁61	-11.8242
Web	-11.8245
▁Perry	-11.8245
▁2)	-11.8248
▁displaying	-11.8248
▁Keith	-11.8252
▁admire	-11.8254
▁Woods	-11.8256
cap	-11.8257
▁Heavy	-11.8259
▁underway	-11.8259
fa	-11.8261
▁organizer	-11.8261
▁evenings	-11.8262
▁Brad	-11.8263
▁Jimmy	-11.8263
▁3:	-11.8263
▁Tu	-11.8264
wear	-11.8264
06	-11.8265
▁Za	-11.8266
▁mice	-11.8267
ky	-11.8267
rie	-11.8267
▁united	-11.8268
▁coalition	-11.8268
▁interviewed	-11.8269
ap	-11.8269
▁Bishop	-11.8271
▁cushions	-11.8272
▁Senator	-11.8273
road	-11.8276
▁donor	-11.8278
▁Photoshop	-11.8278
shirts	-11.8279
▁limitation	-11.828
▁Cruz	-11.8283
▁substantially	-11.8283
▁Pine	-11.8284
▁likelihood	-11.8286
▁drone	-11.8287
▁align	-11.8288
▁peanut	-11.8288
▁maple	-11.829
▁shuttle	-11.829
ification	-11.8292
▁molecular	-11.8294
▁Joy	-11.8294
▁complain	-11.8295
▁trapped	-11.8295
▁Guy	-11.8295
▁Champion	-11.8297
test	-11.83
▁toddler	-11.83
▁ver	-11.8301
▁phases	-11.8303
▁airports	-11.8304
▁multitude	-11.8305
ure	-11.8309
▁trainers	-11.8309
▁cracks	-11.831
▁1500	-11.8311
▁Chain	-11.8312
rin	-11.8312
▁mentally	-11.8316
▁horizon	-11.8316
▁lengths	-11.8316
▁heel	-11.8316
▁borrow	-11.8317
craft	-11.8318
▁charitable	-11.8319
▁poet	-11.832
▁incorporates	-11.8323
▁viruses	-11.8326
▁stating	-11.8326
)?	-11.8329
▁Career	-11.833
▁Mills	-11.8331
▁prototype	-11.8331
ston	-11.8332
▁radar	-11.8332
▁exchanges	-11.8334
▁peel	-11.8334
▁canada	-11.8335
▁shocked	-11.8342
▁logs	-11.8342
▁Whenever	-11.8343
meter	-11.8344
▁Jam	-11.8346
▁sa	-11.8347
▁ghost	-11.8347
▁Going	-11.8348
▁Tourism	-11.8348
▁Belt	-11.8349
▁laughing	-11.835
▁Surgery	-11.8351
eye	-11.8351
▁Er	-11.8351
ice	-11.8352
▁Vi	-11.8354
▁contributes	-11.8355
▁budgets	-11.8359
▁cons	-11.836
▁sourced	-11.8361
inspired	-11.8364
▁Mine	-11.8365
▁Oliver	-11.8367
▁Display	-11.8367
▁teenagers	-11.837
▁aids	-11.837
Blue	-11.8375
▁78	-11.8379
▁Medicaid	-11.8379
Post	-11.8381
▁submissions	-11.8381
▁WILL	-11.8382
▁duck	-11.8388
because	-11.8389
▁learnt	-11.8389
oli	-11.839
▁Growth	-11.8391
▁Oakland	-11.8391
▁Mario	-11.8391
▁grilled	-11.8396
▁wrist	-11.8397
▁07	-11.8398
▁Replacement	-11.8401
▁Mu	-11.8401
▁$30	-11.8402
▁tubes	-11.8402
▁trendy	-11.8402
▁torque	-11.8402
▁landlord	-11.8403
Among	-11.8407
2018	-11.8408
▁metro	-11.8409
▁deficit	-11.8409
▁siding	-11.8409
▁Psychology	-11.8411
▁defining	-11.8412
▁tumor	-11.8413
▁customs	-11.8414
▁exceptionally	-11.8414
▁RM	-11.8416
▁debts	-11.8416
▁Roof	-11.8417
▁rugged	-11.8418
▁Cor	-11.8419
▁Muslims	-11.8421
▁Ana	-11.8421
ros	-11.8426
▁Jerry	-11.8427
▁Nancy	-11.8428
Mar	-11.8429
▁900	-11.8432
▁ugly	-11.8432
▁Manufacturing	-11.8433
bu	-11.8437
▁twitter	-11.8439
Air	-11.8442
▁grandfather	-11.8443
▁equality	-11.8445
▁darker	-11.8446
▁blown	-11.8447
▁comfy	-11.8447
▁fencing	-11.8447
▁upholstery	-11.8447
▁lifelong	-11.8449
▁Soon	-11.8449
▁classification	-11.8452
▁thriving	-11.8452
▁("	-11.8452
▁diy	-11.8455
▁isolation	-11.8456
▁roast	-11.8457
▁Hey	-11.8459
▁creations	-11.846
▁outfits	-11.846
lon	-11.8462
AS	-11.8462
▁70%	-11.8463
ati	-11.8463
bel	-11.8466
Follow	-11.8467
▁resin	-11.8467
going	-11.8468
▁indigenous	-11.8468
▁aroma	-11.8469
▁intermediate	-11.847
▁Deck	-11.847
▁Holland	-11.8473
▁drawers	-11.8475
▁leaks	-11.8475
▁Alzheimer	-11.8475
▁Terry	-11.8478
▁upside	-11.8478
ME	-11.8479
▁Bit	-11.8479
vin	-11.8479
▁scripts	-11.8481
▁125	-11.8481
live	-11.8483
ku	-11.8483
GS	-11.8484
▁brakes	-11.8484
▁dashboard	-11.8485
▁sampling	-11.8485
▁registry	-11.8486
▁Vehicle	-11.8489
▁Les	-11.849
▁ridiculous	-11.849
▁jack	-11.8491
▁Coordinator	-11.8495
▁worlds	-11.8495
▁fulfilling	-11.8496
black	-11.8498
▁toast	-11.8499
▁limiting	-11.8499
NO	-11.8499
▁acquiring	-11.85
▁staple	-11.85
▁Murphy	-11.8505
▁Stanley	-11.8505
▁altered	-11.8506
▁sticking	-11.8507
▁crushed	-11.8507
▁feeds	-11.8508
▁sensation	-11.8508
▁Rate	-11.8509
▁adaptation	-11.851
Help	-11.851
▁advertise	-11.851
▁racial	-11.851
▁Zero	-11.8511
▁vent	-11.8511
▁characterized	-11.8513
▁revealing	-11.8515
▁eliminated	-11.8517
▁sensible	-11.8519
▁forcing	-11.852
▁rebuild	-11.8522
▁lifted	-11.8523
▁dealership	-11.8524
▁dies	-11.8524
▁mayor	-11.8525
▁downloads	-11.8526
▁workouts	-11.8526
▁98	-11.8527
▁Stories	-11.8528
▁Ore	-11.8528
▁protocols	-11.8528
▁opener	-11.8529
▁centered	-11.8529
▁elaborate	-11.853
▁Laboratory	-11.853
▁logging	-11.8531
▁Ashley	-11.8531
▁economies	-11.8533
▁100,000	-11.8538
▁exports	-11.8539
Business	-11.8539
▁faucet	-11.854
▁freight	-11.8541
▁Prevention	-11.8545
nie	-11.8546
▁von	-11.8546
▁Regardless	-11.8546
▁bored	-11.8548
▁void	-11.8549
▁constraints	-11.855
Play	-11.855
resistant	-11.8551
iz	-11.8551
▁coats	-11.8553
▁Bangladesh	-11.8553
TO	-11.8554
▁Luckily	-11.8555
▁graduating	-11.8557
▁equation	-11.8557
▁eternal	-11.8561
▁tier	-11.8563
▁Programs	-11.8565
▁metabolism	-11.8565
▁parenting	-11.8569
▁subsidiary	-11.8572
used	-11.8573
▁purely	-11.8576
city	-11.8577
▁fifteen	-11.8581
zer	-11.8582
▁Discovery	-11.8583
▁therapies	-11.8584
▁surfing	-11.8587
mont	-11.8587
▁stuffed	-11.8589
▁Same	-11.8589
saving	-11.8591
half	-11.8591
▁bracket	-11.8593
▁mins	-11.8593
▁spotlight	-11.8594
▁Apart	-11.8597
▁Comments	-11.86
08	-11.8604
▁hints	-11.8604
▁markers	-11.8609
▁distinguished	-11.8609
has	-11.8609
▁Parents	-11.861
▁studios	-11.861
via	-11.861
▁sandwiches	-11.8612
▁merchant	-11.8617
▁liner	-11.8617
▁GDP	-11.8618
▁Tiger	-11.8618
▁bell	-11.8618
▁grains	-11.8619
▁tabs	-11.8621
del	-11.8621
▁reflecting	-11.8623
▁Tab	-11.8623
stock	-11.8623
▁resorts	-11.8625
▁Fu	-11.8625
▁specializing	-11.8626
▁terror	-11.8626
▁EC	-11.8626
▁furnace	-11.8626
▁teenager	-11.8628
▁consequence	-11.8631
▁Mode	-11.8631
▁menus	-11.8632
▁BY	-11.8634
▁cousin	-11.8636
▁loft	-11.8637
▁immense	-11.8637
▁Wildlife	-11.864
▁webinar	-11.8641
▁Compare	-11.8643
▁Elite	-11.8643
▁premiums	-11.8644
▁practitioner	-11.8644
▁forty	-11.8645
▁avail	-11.8645
▁spelling	-11.8648
▁obesity	-11.8649
▁Walter	-11.865
▁heights	-11.8651
▁india	-11.8651
itis	-11.8652
▁Expert	-11.8656
▁Mason	-11.8661
▁resolutions	-11.8661
42	-11.8662
▁ET	-11.8662
▁60%	-11.8664
▁Veterans	-11.8664
▁Flight	-11.8664
▁Tap	-11.8666
▁headphones	-11.8669
▁Guest	-11.867
▁tweet	-11.867
▁aviation	-11.8674
▁considerations	-11.8675
▁privately	-11.8676
▁disagree	-11.8677
▁EPA	-11.8678
▁tragedy	-11.8679
burn	-11.8679
▁Barry	-11.868
▁infant	-11.868
▁Jet	-11.8682
▁Lock	-11.8684
▁Finland	-11.8685
▁stitch	-11.8686
▁vaccine	-11.8686
▁stems	-11.8686
Yeah	-11.8686
▁soy	-11.8689
▁pillows	-11.8691
▁Hell	-11.8695
▁Brain	-11.8697
▁pots	-11.87
▁attitudes	-11.8703
online	-11.8705
▁joins	-11.8705
▁Eagles	-11.8707
▁Players	-11.8708
▁foremost	-11.8708
▁Billy	-11.871
Yet	-11.8714
▁Benjamin	-11.8716
Speaking	-11.8716
▁guards	-11.8719
bus	-11.8721
powered	-11.8723
▁amid	-11.8724
▁rust	-11.8724
▁stimulate	-11.8724
▁Laser	-11.8724
▁Argentina	-11.8726
▁Sets	-11.8726
▁Discussion	-11.8728
▁chill	-11.8728
▁Ok	-11.8729
▁rocket	-11.8731
sey	-11.8731
▁passive	-11.8731
rated	-11.8732
▁unclear	-11.8733
▁packaged	-11.8734
▁Ted	-11.8734
▁boarding	-11.8737
both	-11.874
▁$8	-11.874
▁Lanka	-11.8741
▁proactive	-11.8745
▁incoming	-11.8745
▁commitments	-11.8746
su	-11.8747
▁pendant	-11.8752
▁expectation	-11.8753
▁evaluating	-11.8754
▁Nebraska	-11.8755
▁Haven	-11.8757
pay	-11.8757
▁bandwidth	-11.8758
▁1800	-11.8762
▁Pizza	-11.8763
▁Flooring	-11.8767
▁inquiries	-11.8767
▁Wholesale	-11.8768
▁headaches	-11.8768
Ex	-11.8769
▁Idaho	-11.8769
▁sticky	-11.877
▁dash	-11.8771
▁Rain	-11.8771
▁conclude	-11.8773
▁74	-11.8777
▁UC	-11.8781
▁pill	-11.8781
▁Relations	-11.8785
▁colourful	-11.8785
▁04	-11.8786
▁flavours	-11.8787
▁Mortgage	-11.8788
▁Para	-11.879
▁colleague	-11.8794
Working	-11.8795
▁similarly	-11.8797
▁arch	-11.8799
Bar	-11.8799
Think	-11.8801
▁Lin	-11.8801
▁Blu	-11.8802
▁Mor	-11.8803
▁voucher	-11.8803
tec	-11.8804
▁Honor	-11.8804
▁clicks	-11.8805
▁envelope	-11.8806
▁Tournament	-11.8806
▁macro	-11.8806
31	-11.8808
oc	-11.8809
▁Geo	-11.881
▁Juan	-11.8812
▁Julie	-11.8812
user	-11.8812
▁threatening	-11.8814
▁Ideal	-11.8814
cho	-11.8814
group	-11.8816
▁MT	-11.8817
▁Des	-11.882
▁Teachers	-11.8822
▁Wash	-11.8823
▁Lauren	-11.8823
pi	-11.8823
▁defending	-11.8825
▁yeast	-11.8827
Anyone	-11.8828
02	-11.883
▁utmost	-11.8831
door	-11.8832
▁token	-11.8832
Super	-11.8834
HP	-11.8834
▁worthwhile	-11.8836
ens	-11.8838
▁accelerate	-11.8839
▁analyzing	-11.884
▁Yorkshire	-11.8842
▁demographic	-11.8844
▁id	-11.8847
▁5,000	-11.8848
istic	-11.885
▁cardiovascular	-11.8851
▁belonging	-11.8853
▁genius	-11.8853
▁1.2	-11.8856
▁Desktop	-11.8857
▁Philip	-11.8858
▁compatibility	-11.8858
ground	-11.886
▁Turner	-11.886
ori	-11.8862
South	-11.8864
▁Testing	-11.8864
▁persistent	-11.8867
▁Perth	-11.8868
▁blues	-11.8869
▁NSW	-11.8871
▁nonetheless	-11.8871
▁GO	-11.8871
▁Hire	-11.8873
▁Expo	-11.8876
▁Solid	-11.8877
▁overly	-11.8877
▁Milan	-11.8879
▁Generally	-11.8879
▁charities	-11.8881
▁classrooms	-11.8884
▁honors	-11.8884
▁firmware	-11.8887
▁Rental	-11.8888
ris	-11.8889
▁beers	-11.889
▁Profile	-11.8891
▁ballot	-11.8891
▁distributor	-11.8892
▁Nor	-11.8894
▁ONLY	-11.8898
▁Beer	-11.8899
▁Faith	-11.89
▁Internal	-11.89
ua	-11.8901
▁trillion	-11.8901
Long	-11.8903
▁lol	-11.8905
▁nevertheless	-11.8906
▁Maps	-11.8907
▁picturesque	-11.8907
ova	-11.8909
▁defines	-11.8911
▁elevation	-11.8912
▁ventilation	-11.8913
▁Swift	-11.8913
▁urged	-11.8913
April	-11.8919
▁Walmart	-11.892
▁democratic	-11.892
▁opted	-11.8921
▁overlooked	-11.8921
NA	-11.8922
▁triggered	-11.8925
▁rendering	-11.8925
▁Fame	-11.8926
▁recruit	-11.8926
▁authentication	-11.8927
▁remainder	-11.8927
▁investigated	-11.8929
▁flew	-11.8931
▁implant	-11.8931
▁crude	-11.8931
▁Deal	-11.8935
▁regulate	-11.8936
▁stepping	-11.8937
▁expose	-11.894
ich	-11.8941
▁squash	-11.8942
▁Railway	-11.8942
▁battles	-11.8943
▁dosage	-11.8946
▁ferry	-11.8947
▁relies	-11.8952
Art	-11.8952
▁sanctions	-11.8952
▁robots	-11.8955
▁angel	-11.8955
▁storytelling	-11.8956
▁journalism	-11.8957
▁Bel	-11.8957
▁herbal	-11.8957
▁Tel	-11.8957
▁Sierra	-11.896
▁Membership	-11.896
stein	-11.896
▁grammar	-11.8961
▁Hunt	-11.8961
▁Settings	-11.8962
▁aluminium	-11.8962
san	-11.8963
https	-11.8963
▁residency	-11.8964
Link	-11.8965
Pay	-11.8969
fe	-11.8969
▁assuming	-11.897
▁conviction	-11.897
▁origins	-11.8971
although	-11.8972
▁mate	-11.8973
▁buzz	-11.8973
▁trio	-11.8975
▁senses	-11.8975
▁quarters	-11.8975
▁disappear	-11.8975
▁litter	-11.8977
▁Campaign	-11.8977
dimensional	-11.8977
bn	-11.8978
▁sponsorship	-11.8981
▁Cha	-11.8982
▁stroll	-11.8983
▁AB	-11.8984
▁Publishing	-11.8985
▁steak	-11.8985
▁dancers	-11.8988
▁kindly	-11.8988
▁Grinding	-11.8988
any	-11.8989
▁spite	-11.8991
USA	-11.8994
▁sail	-11.8994
▁thru	-11.8997
▁springs	-11.8998
▁corrosion	-11.8999
▁vocabulary	-11.9001
▁dock	-11.9002
▁tales	-11.9004
▁poses	-11.9006
▁comics	-11.9006
▁Foods	-11.9013
tes	-11.9017
▁Commonwealth	-11.9018
▁specs	-11.9019
▁Healthy	-11.902
ase	-11.9021
▁advertisements	-11.9021
▁jersey	-11.9022
▁render	-11.9023
▁flies	-11.9024
▁exceptions	-11.9034
▁Ra	-11.9035
▁Historic	-11.9036
▁Delaware	-11.9036
President	-11.9037
▁critically	-11.9039
▁3,000	-11.904
around	-11.904
oni	-11.9042
▁messy	-11.9044
▁kitchens	-11.9044
▁turnover	-11.9047
▁Command	-11.9048
▁Listen	-11.9054
degree	-11.9055
▁carved	-11.9055
▁conserve	-11.9056
▁analyses	-11.9057
Sorry	-11.9058
ians	-11.9062
▁ideally	-11.9062
▁landmark	-11.9063
▁printers	-11.9064
focused	-11.9065
ric	-11.9065
▁Bat	-11.9069
▁inspect	-11.9069
▁Dinner	-11.9075
dar	-11.9077
▁2005,	-11.9078
▁Nokia	-11.9081
85	-11.9082
▁calculation	-11.9083
▁readings	-11.9084
65	-11.9085
▁Bonus	-11.9087
▁allocated	-11.9088
▁Neil	-11.909
▁gig	-11.9092
▁Someone	-11.9093
▁yields	-11.9095
▁Abu	-11.9095
▁drums	-11.9096
▁Ba	-11.9097
▁AA	-11.9097
▁forefront	-11.9097
▁wasted	-11.9097
▁illustrate	-11.9098
generation	-11.9098
▁Chapel	-11.9098
▁fats	-11.9099
▁crowds	-11.91
▁Nova	-11.9102
ow	-11.9102
▁spinach	-11.9103
▁Notes	-11.9105
ify	-11.9106
hole	-11.9107
▁Shore	-11.9107
▁shaft	-11.9107
cat	-11.9107
▁Cake	-11.9108
▁Truth	-11.911
▁Fill	-11.9112
▁NCAA	-11.9113
▁acted	-11.9113
▁Tyler	-11.9113
▁amateur	-11.9115
▁Copper	-11.9116
▁innings	-11.9116
▁focal	-11.9117
shop	-11.912
tone	-11.9121
Box	-11.9123
▁notably	-11.9125
ona	-11.9125
▁fax	-11.9127
▁retained	-11.9127
▁dementia	-11.9128
▁endeavor	-11.913
?)	-11.9131
▁Poker	-11.9134
▁Directory	-11.9134
▁Path	-11.9135
▁entertain	-11.9135
▁None	-11.9136
▁crying	-11.9137
12.	-11.9137
▁Skills	-11.9137
▁logos	-11.9138
▁Political	-11.9138
▁Owner	-11.9138
▁Conditions	-11.9139
▁unions	-11.914
▁transported	-11.914
▁calculator	-11.9141
▁PE	-11.9145
▁Wikipedia	-11.9145
share	-11.9146
▁Ki	-11.9146
▁streak	-11.9147
▁Statistics	-11.9147
▁firing	-11.9148
▁Roofing	-11.9149
▁nest	-11.9149
▁remotely	-11.9151
▁enhances	-11.9153
▁guiding	-11.9159
▁accompany	-11.9159
case	-11.916
▁praying	-11.9161
▁paradise	-11.9163
Sign	-11.917
▁unveiled	-11.917
▁procurement	-11.9171
▁Fly	-11.9172
▁tolerance	-11.9172
▁Hero	-11.9173
▁expressions	-11.9173
▁BB	-11.9173
▁coil	-11.9174
▁favorable	-11.9176
▁lodge	-11.9176
▁Fit	-11.9179
▁fatal	-11.918
▁Various	-11.9182
▁governing	-11.9182
▁intact	-11.9184
AD	-11.9185
▁invisible	-11.9186
▁Fri	-11.9187
Additionally	-11.919
▁probability	-11.919
MM	-11.9193
▁Nutrition	-11.9194
▁Dual	-11.9194
▁Unless	-11.9195
Made	-11.9198
▁Mal	-11.9199
▁Running	-11.9199
Such	-11.92
▁Uber	-11.9203
▁wars	-11.9204
▁portraits	-11.9204
▁noticeable	-11.9207
▁fuse	-11.9207
▁marker	-11.9208
▁Flow	-11.921
▁deadlines	-11.9211
▁asthma	-11.9212
▁terrorism	-11.9216
▁plugins	-11.9217
▁Depot	-11.9219
SO	-11.922
▁trustworthy	-11.9221
▁1994	-11.9223
▁Medium	-11.9228
El	-11.9228
▁guilt	-11.9228
07	-11.9228
▁gifted	-11.9231
▁sparkling	-11.9231
▁2004.	-11.9233
▁knit	-11.9233
▁ranch	-11.9233
▁Pretty	-11.9234
▁aboard	-11.9235
▁scales	-11.9235
Am	-11.9235
Getting	-11.9237
▁Flowers	-11.9238
▁blades	-11.9238
Paul	-11.9239
▁administered	-11.924
▁Anniversary	-11.9241
Second	-11.9243
▁92	-11.9244
48	-11.9244
▁verse	-11.9244
▁rays	-11.9246
performance	-11.9247
gmail	-11.9248
▁bolt	-11.9249
▁compliment	-11.925
▁scalp	-11.9251
hard	-11.9254
▁squeeze	-11.9256
shi	-11.9257
▁constitute	-11.9259
▁organs	-11.926
pad	-11.9261
acre	-11.9261
▁Cole	-11.9262
▁stereo	-11.9262
▁15-	-11.9262
▁gravel	-11.9262
▁Chevrolet	-11.9263
▁arthritis	-11.9273
▁fork	-11.9274
▁Chen	-11.9277
▁hottest	-11.9278
▁gadgets	-11.9281
▁transforming	-11.9282
▁03	-11.9284
▁honesty	-11.9284
▁vulnerability	-11.9288
small	-11.929
▁enters	-11.929
▁retaining	-11.929
▁absorbed	-11.929
▁Poly	-11.9291
▁undergo	-11.9293
▁bullet	-11.9293
▁fashionable	-11.9294
▁owns	-11.9294
▁oriented	-11.9298
hu	-11.9299
▁bargain	-11.9302
▁cache	-11.9303
▁0.	-11.9303
▁crushers	-11.9307
▁Cotton	-11.9307
FM	-11.9308
▁french	-11.9308
▁Address	-11.9308
▁feasible	-11.9309
▁indoors	-11.931
▁woven	-11.931
▁masters	-11.9312
▁Mat	-11.9312
▁AN	-11.9315
▁Todd	-11.9316
▁Blues	-11.9317
▁Warner	-11.9319
▁implies	-11.9319
▁Duty	-11.932
City	-11.9328
▁cryptocurrency	-11.9329
▁Cathedral	-11.9332
▁notebook	-11.9335
▁quietly	-11.9336
▁siblings	-11.9336
▁Berkeley	-11.9338
▁Theory	-11.9339
▁recession	-11.9341
▁Powder	-11.9341
▁planes	-11.9342
▁Pour	-11.9344
▁fog	-11.9345
▁84	-11.9345
▁laptops	-11.9347
▁fonts	-11.9349
▁Calgary	-11.935
▁Jamie	-11.9351
▁champions	-11.9352
▁SEC	-11.9353
▁valuation	-11.9354
▁survivors	-11.9354
▁smiling	-11.9355
▁roses	-11.9357
▁shipment	-11.9358
▁Educational	-11.9358
though	-11.9358
▁hormone	-11.9359
▁notch	-11.9361
▁planner	-11.9361
▁canal	-11.9361
▁proxy	-11.9361
▁whatsoever	-11.9362
▁glucose	-11.9363
▁Carbon	-11.9365
▁genres	-11.9366
Enter	-11.9367
▁Automatic	-11.9367
▁Jefferson	-11.9368
▁hazards	-11.9369
mp	-11.9372
▁captures	-11.9375
▁Dam	-11.9375
▁illnesses	-11.9376
▁hazardous	-11.9376
▁Doug	-11.9378
▁Latest	-11.9379
▁Stanford	-11.9381
▁Tai	-11.9381
▁accompanying	-11.9383
▁tunes	-11.9383
▁unfortunate	-11.9384
▁71	-11.9384
▁crafting	-11.9384
▁Egyptian	-11.9387
Le	-11.9387
▁kilometers	-11.9387
▁Brandon	-11.9391
▁HS	-11.9393
▁balancing	-11.9393
▁Yo	-11.9394
▁abortion	-11.9395
▁bleeding	-11.9395
53	-11.9396
▁toilets	-11.9397
▁advertisement	-11.9397
▁irrigation	-11.9401
▁Lakes	-11.9403
lie	-11.9403
▁Bee	-11.9405
▁Jaw	-11.9408
▁Avoid	-11.9408
▁wipe	-11.9408
▁Watson	-11.9409
▁grapes	-11.9411
▁disappointment	-11.9413
▁Foot	-11.9414
▁scattered	-11.9414
▁inherent	-11.9416
▁coordinated	-11.9416
▁historically	-11.9417
▁Commons	-11.9418
▁soothing	-11.9419
▁$200	-11.9421
▁DS	-11.9421
▁Barn	-11.9421
▁1940	-11.9421
▁mono	-11.9421
bin	-11.9422
pop	-11.9423
▁moist	-11.9423
▁bearings	-11.9425
▁Multiple	-11.9425
▁Anyway	-11.9426
▁Reports	-11.9428
▁Sterling	-11.9428
▁sword	-11.9429
▁explosion	-11.9429
ington	-11.943
email	-11.9432
▁calculations	-11.9432
Michael	-11.9433
▁daunting	-11.9434
▁gateway	-11.9434
▁Memory	-11.9438
▁relates	-11.9438
▁1.0	-11.9439
▁justify	-11.9439
▁bean	-11.9441
flow	-11.9442
09	-11.9444
39	-11.9444
Power	-11.9446
▁Guardian	-11.9447
▁laminate	-11.945
▁skillet	-11.9451
▁creature	-11.9453
▁caution	-11.9454
▁impress	-11.9454
▁AG	-11.9455
▁proves	-11.9455
▁protests	-11.9456
▁fairy	-11.9457
▁quiz	-11.9458
▁Norman	-11.9459
▁berries	-11.946
▁02	-11.9463
March	-11.9463
▁laughter	-11.9463
BA	-11.9464
▁shaping	-11.9464
▁banana	-11.9467
▁helicopter	-11.947
▁tens	-11.947
▁integrating	-11.9471
▁Walking	-11.9471
▁baths	-11.9472
▁amp	-11.9474
▁Shot	-11.9475
▁MLS	-11.9477
▁Sar	-11.9477
▁Cuba	-11.9479
▁Projects	-11.948
▁Kindle	-11.9481
▁Ti	-11.9481
National	-11.9485
sk	-11.9486
▁lend	-11.9486
▁removable	-11.9487
▁Helen	-11.9487
four	-11.949
▁hooked	-11.949
▁Mental	-11.9491
phone	-11.9493
▁Evans	-11.9493
Ha	-11.9494
Nice	-11.9494
▁Jeremy	-11.9495
show	-11.9496
▁travelled	-11.9496
▁EN	-11.9496
▁Peru	-11.9497
▁personalised	-11.9498
▁awkward	-11.9499
ible	-11.9499
illa	-11.9502
▁elastic	-11.9503
▁bounce	-11.9504
▁nodes	-11.9505
▁blends	-11.9505
▁leap	-11.9507
▁Strong	-11.9507
250	-11.9508
▁Jeep	-11.9508
length	-11.9509
▁69	-11.951
▁relay	-11.9511
▁replied	-11.9513
Special	-11.9513
ud	-11.9514
▁relocation	-11.9514
▁Cameron	-11.9514
▁Roberts	-11.9521
▁Cruise	-11.9523
▁employs	-11.9523
▁Norwegian	-11.9523
▁Properties	-11.9523
▁Ghana	-11.9525
▁Wallpaper	-11.9525
ified	-11.9527
▁Zen	-11.9528
▁rigid	-11.9528
▁Processing	-11.9529
▁Remote	-11.9529
working	-11.9532
▁willingness	-11.9533
▁mo	-11.9534
▁advisors	-11.9537
▁Request	-11.9537
▁Framework	-11.954
▁acre	-11.954
▁attain	-11.9541
▁rub	-11.9541
▁collectors	-11.9542
▁Discount	-11.9542
▁XL	-11.9544
▁Whole	-11.9545
▁convicted	-11.9546
▁whisk	-11.9546
▁Lost	-11.9547
business	-11.9547
▁Bali	-11.9548
west	-11.9551
▁interpret	-11.9552
▁Peak	-11.9553
▁Ottawa	-11.9554
▁Bass	-11.9555
▁Fellow	-11.9555
▁Mirror	-11.9556
▁generates	-11.9557
▁dialog	-11.9558
▁straps	-11.9559
▁82	-11.9559
▁Shell	-11.956
▁mug	-11.956
▁arrow	-11.9562
▁webpage	-11.9566
▁validation	-11.9568
▁bracelet	-11.9568
▁uncommon	-11.9568
▁assemble	-11.9571
▁Resolution	-11.9571
▁Serve	-11.9574
▁Ski	-11.9575
▁Jake	-11.9575
▁teenage	-11.9576
▁Vienna	-11.9576
▁asphalt	-11.9577
▁ritual	-11.958
▁Obviously	-11.9581
▁supervisor	-11.9586
ram	-11.9587
▁spinning	-11.9587
▁Pope	-11.9588
▁Stan	-11.9589
▁Lovely	-11.959
▁CMS	-11.9591
ban	-11.9592
▁Task	-11.9593
▁credibility	-11.9593
▁Wire	-11.9593
▁tournaments	-11.9595
▁McDonald	-11.9595
Local	-11.9595
▁mentoring	-11.9595
▁disable	-11.9596
▁vet	-11.96
▁ma	-11.9601
▁adhesive	-11.9603
▁grease	-11.9603
▁Rule	-11.9605
▁Hack	-11.9607
▁Lounge	-11.9607
▁deputy	-11.9609
Beautiful	-11.961
▁Featuring	-11.9611
▁Min	-11.9615
▁Wave	-11.9616
▁Movement	-11.9616
▁stranger	-11.9617
olo	-11.9617
▁vivid	-11.9618
▁milestone	-11.9618
▁Parish	-11.9619
gy	-11.9619
full	-11.962
value	-11.962
cent	-11.9624
▁gourmet	-11.9625
▁accepts	-11.9626
▁requesting	-11.9628
▁Trinity	-11.9629
▁believing	-11.963
ye	-11.963
gun	-11.9631
▁christmas	-11.9634
▁UAE	-11.9635
▁Principal	-11.9635
▁severely	-11.9635
uff	-11.9637
▁Revenue	-11.9638
lasting	-11.9639
▁Venice	-11.9639
▁73	-11.9639
▁Cu	-11.964
▁Essay	-11.9641
▁Harrison	-11.9642
▁declare	-11.9644
▁£	-11.9644
▁grave	-11.9648
▁Scholarship	-11.9649
▁dump	-11.9649
▁gallon	-11.965
▁traction	-11.965
▁username	-11.965
▁cardboard	-11.9651
▁dismissed	-11.9654
-19	-11.9654
▁inspections	-11.9655
▁boundary	-11.9659
▁Universe	-11.9661
▁Hour	-11.9662
▁Hop	-11.9662
▁advancement	-11.9663
start	-11.9664
▁invented	-11.9664
▁chefs	-11.9665
lia	-11.9666
Ask	-11.9667
fold	-11.967
▁dangers	-11.967
▁labeled	-11.9672
▁Templates	-11.9674
anti	-11.9676
▁Ro	-11.9676
▁Typically	-11.9677
TB	-11.9677
▁Rogers	-11.9678
▁Dollar	-11.9679
▁4.5	-11.968
▁Lion	-11.968
/10	-11.9681
standing	-11.9681
▁randomly	-11.9682
▁Battery	-11.9684
▁polyester	-11.9685
▁enforce	-11.9685
▁adore	-11.969
Social	-11.9691
ica	-11.9691
Health	-11.9692
▁cheer	-11.9693
ib	-11.9694
-7	-11.9696
▁Portable	-11.9696
▁Iranian	-11.9696
▁Alternatively	-11.9697
▁reside	-11.9698
▁accidentally	-11.9701
▁payable	-11.9706
▁posture	-11.9707
▁attributed	-11.9713
ging	-11.9717
▁blender	-11.9718
▁stiff	-11.972
▁wheelchair	-11.9721
▁disappointing	-11.9721
▁Cherry	-11.9722
▁cleansing	-11.9723
▁Marina	-11.9723
▁slate	-11.9724
▁rivals	-11.9724
▁headache	-11.9727
▁headlines	-11.9729
▁PVC	-11.973
▁Ger	-11.973
▁Funeral	-11.9732
lay	-11.9732
▁Township	-11.9734
▁st	-11.9735
▁Grab	-11.9739
▁cartoon	-11.974
▁investigators	-11.974
▁7:30	-11.9741
5)	-11.9742
square	-11.9742
▁dwelling	-11.9742
boy	-11.9744
nan	-11.9745
mel	-11.9745
MD	-11.9746
Never	-11.9747
▁Chart	-11.9748
▁Rail	-11.9753
▁bend	-11.9753
▁disappeared	-11.9754
▁systematic	-11.9754
▁crypto	-11.9756
▁Ta	-11.9759
▁archives	-11.9761
▁clarify	-11.9766
▁spiral	-11.9766
ily	-11.9768
▁trek	-11.9768
▁ancestors	-11.977
-30	-11.9772
▁Bur	-11.9773
▁Tamil	-11.9775
▁cartridge	-11.9775
▁SSL	-11.9778
▁swelling	-11.9778
▁owning	-11.9779
▁folders	-11.9779
ius	-11.9781
Anyway	-11.9782
▁tragic	-11.9783
▁locking	-11.9784
▁Figure	-11.9785
▁respiratory	-11.9788
Besides	-11.9788
▁typing	-11.9789
▁hilarious	-11.979
▁Waste	-11.9791
▁shorts	-11.9791
03	-11.9792
▁attracting	-11.9794
52	-11.98
▁AZ	-11.98
lib	-11.98
▁Southwest	-11.98
▁outdated	-11.9802
▁tightly	-11.9803
▁sodium	-11.9803
ora	-11.9808
nis	-11.9808
▁88	-11.9809
food	-11.981
▁damp	-11.9811
bad	-11.9813
▁converting	-11.9814
▁enroll	-11.9815
▁stance	-11.9817
▁punishment	-11.9819
▁trademarks	-11.9819
▁Craft	-11.982
▁pantry	-11.9821
val	-11.9825
▁Coalition	-11.9826
▁aerial	-11.9826
▁Lamp	-11.9829
▁controversy	-11.9831
DB	-11.9832
Share	-11.9833
▁Christianity	-11.9834
▁personalities	-11.9835
▁ensemble	-11.9836
▁avocado	-11.9836
▁fixes	-11.9837
plan	-11.9838
▁bets	-11.9839
▁Database	-11.9841
▁Arabic	-11.9842
▁Move	-11.9843
▁margins	-11.9844
▁starring	-11.9844
▁Sheriff	-11.9845
▁Scientific	-11.9846
▁tenure	-11.9848
▁rendered	-11.9852
design	-11.9852
▁warranties	-11.9853
▁refresh	-11.9854
▁Chase	-11.9854
stra	-11.9855
▁broth	-11.9856
▁patented	-11.9856
▁wrinkles	-11.9857
▁Row	-11.986
05	-11.986
▁accents	-11.9862
▁Guests	-11.9863
make	-11.9864
Care	-11.9864
▁biking	-11.9864
Bo	-11.9866
▁referrals	-11.9867
▁Chile	-11.9867
North	-11.9869
▁Heaven	-11.9871
▁compassionate	-11.9872
▁bookings	-11.9875
▁cared	-11.9875
▁NBC	-11.9876
▁cage	-11.9876
▁mileage	-11.9876
▁rooted	-11.9877
▁Bal	-11.9878
▁recognizes	-11.9879
▁catalogue	-11.9882
▁neglect	-11.9882
▁pulse	-11.9883
▁volunteering	-11.9884
▁quarterback	-11.9886
Always	-11.9886
safe	-11.9886
▁feast	-11.9893
▁Kyle	-11.9897
▁0.5	-11.9897
▁desserts	-11.9898
▁Boat	-11.9898
▁sneak	-11.9903
▁sorted	-11.9904
track	-11.9905
▁fusion	-11.9906
▁practiced	-11.9907
▁vol	-11.9907
▁Amendment	-11.9908
▁digging	-11.9908
▁umbrella	-11.9909
▁intricate	-11.9911
▁suspicious	-11.9912
▁Wear	-11.9913
▁Kid	-11.9914
▁reforms	-11.9915
▁canopy	-11.9918
blue	-11.9918
▁drunk	-11.992
▁autism	-11.9922
weight	-11.9923
▁backpack	-11.9923
51	-11.9925
▁grabbed	-11.9925
▁lamb	-11.9926
▁upgrading	-11.9926
▁curb	-11.9927
▁relying	-11.993
4,	-11.9931
▁lb	-11.9931
▁Weekend	-11.9931
▁carpets	-11.9932
FA	-11.9932
▁Dennis	-11.9932
▁Uni	-11.9933
mat	-11.9933
▁Generation	-11.9936
▁societies	-11.9936
▁94	-11.9937
Unlike	-11.9938
gi	-11.9939
▁pinch	-11.994
▁bitcoin	-11.9941
▁benchmark	-11.9943
▁Dress	-11.9944
▁witnesses	-11.9945
ip	-11.9946
Live	-11.9951
-16	-11.9952
▁renew	-11.9953
▁smells	-11.9954
ob	-11.9955
▁$7	-11.9956
▁Apps	-11.9956
Remove	-11.9957
▁weaknesses	-11.996
▁CSS	-11.9961
▁uncover	-11.9962
▁wrapping	-11.9963
▁Portuguese	-11.9964
▁woke	-11.9965
▁scam	-11.9967
▁Katie	-11.9969
▁competence	-11.9969
▁Ruth	-11.9969
▁unity	-11.997
▁2004,	-11.9975
Put	-11.9976
Men	-11.9976
▁PO	-11.9977
berry	-11.9979
▁retire	-11.998
▁demonstrating	-11.998
2-	-11.9981
▁Statement	-11.9981
▁(10	-11.9982
▁fibre	-11.9983
▁porcelain	-11.9983
▁alloy	-11.9984
▁assessing	-11.9985
▁Hal	-11.9987
▁mandate	-11.9991
php	-11.9991
PO	-11.9991
▁rehab	-11.9992
▁registering	-11.9995
▁wilderness	-11.9997
June	-11.9997
▁worksheets	-11.9998
▁amendment	-11.9998
▁inserted	-11.9999
▁revision	-11.9999
▁FA	-12
▁Dodge	-12
▁formally	-12
▁wonderfully	-12.0001
▁Employment	-12.0002
▁2003.	-12.0003
▁affiliates	-12.0005
▁weights	-12.0005
▁mac	-12.0006
▁noting	-12.0006
▁humanitarian	-12.0008
▁launches	-12.0008
▁browsers	-12.001
▁kicks	-12.0013
▁tick	-12.0013
▁Aqua	-12.0014
▁earthquake	-12.0015
▁nomination	-12.0017
▁allies	-12.0017
▁Brussels	-12.0017
▁carrots	-12.0018
▁Cedar	-12.002
▁trunk	-12.0022
▁showcasing	-12.0025
▁simplify	-12.0025
▁rented	-12.0026
Several	-12.0028
▁negligence	-12.003
▁versatility	-12.003
▁Basically	-12.0031
▁Symphony	-12.0032
AR	-12.0036
▁showroom	-12.004
▁Dar	-12.0041
ERS	-12.0042
▁dentistry	-12.0042
▁Pastor	-12.0042
▁optimistic	-12.0045
▁Newcastle	-12.0045
▁freshman	-12.0046
▁Sim	-12.0047
▁CNN	-12.0047
▁Firefox	-12.0048
▁Ceiling	-12.0049
▁activist	-12.0049
▁4.0	-12.0049
”).	-12.0049
▁INC	-12.005
gas	-12.0052
▁Question	-12.0054
▁potent	-12.0056
▁450	-12.0058
▁baskets	-12.0059
▁fossil	-12.006
▁curved	-12.0063
▁Shakespeare	-12.0065
▁Rent	-12.0065
▁celebrates	-12.0066
▁Gov	-12.0066
▁Abraham	-12.0066
▁Indians	-12.0066
▁Similarly	-12.0067
▁prevented	-12.0069
▁sandy	-12.0072
▁enclosed	-12.0073
▁useless	-12.0074
▁customizable	-12.0075
▁lawmakers	-12.0076
other	-12.0079
88	-12.0081
▁cocoa	-12.0082
▁uncertain	-12.0082
CC	-12.0082
▁analog	-12.0083
▁simplest	-12.0087
Hope	-12.0088
▁Motion	-12.0088
ag	-12.0088
▁invasive	-12.0088
▁disclosed	-12.0089
▁Near	-12.009
▁youtube	-12.0092
▁remodel	-12.0095
▁simmer	-12.0095
▁Train	-12.0096
▁storms	-12.0097
▁tangible	-12.0098
▁upstairs	-12.0099
then	-12.01
▁determines	-12.01
lands	-12.01
▁Fellowship	-12.01
▁Cam	-12.0102
▁Electronics	-12.0102
▁pause	-12.0102
ese	-12.0105
tri	-12.0107
▁flags	-12.0108
▁steer	-12.0109
▁inaugural	-12.0109
▁Securities	-12.0111
House	-12.0111
▁recovering	-12.0113
▁bowls	-12.0113
▁inhabitants	-12.0115
ev	-12.0117
▁Grill	-12.0118
▁Less	-12.0119
Line	-12.0123
▁supermarket	-12.0124
▁pastry	-12.013
▁Conditioning	-12.0134
▁Bet	-12.0136
▁norm	-12.0136
▁civic	-12.0137
▁MC	-12.0138
cal	-12.014
▁drought	-12.014
▁committees	-12.0143
▁collector	-12.0144
▁ruin	-12.0146
▁matrix	-12.0147
▁Cities	-12.0147
▁resilience	-12.0148
▁implied	-12.0148
Stay	-12.0152
▁sadly	-12.0157
▁prediction	-12.0158
▁hooks	-12.0159
▁probe	-12.016
▁Lou	-12.0161
▁heavier	-12.0161
▁crystals	-12.0161
▁Mod	-12.0162
rt	-12.0166
▁mathematical	-12.0166
workers	-12.0168
demand	-12.0168
▁packet	-12.0168
Congratulations	-12.0171
▁sang	-12.0171
Key	-12.0171
▁countertops	-12.0176
▁Den	-12.0177
▁Jen	-12.0177
LE	-12.0178
ida	-12.018
▁initiate	-12.018
▁statue	-12.018
▁pedestrian	-12.0181
matic	-12.0181
▁homepage	-12.0181
▁Archives	-12.0184
▁Harvey	-12.0184
▁variant	-12.0184
PE	-12.0188
▁martial	-12.0188
▁chili	-12.019
▁interiors	-12.0191
▁Heating	-12.0192
43	-12.0194
▁Experts	-12.0196
▁resting	-12.0197
▁Congratulations	-12.0198
▁bloom	-12.0199
[...]
